{
    "<s>": 0,
    "<pad>": 1,
    "</s>": 2,
    "<unk>": 3,
    "<mask>": 4,
    "!": 5,
    "\"": 6,
    "#": 7,
    "$": 8,
    "%": 9,
    "&": 10,
    "'": 11,
    "(": 12,
    ")": 13,
    "*": 14,
    "+": 15,
    ",": 16,
    "-": 17,
    ".": 18,
    "/": 19,
    "0": 20,
    "1": 21,
    "2": 22,
    "3": 23,
    "4": 24,
    "5": 25,
    "6": 26,
    "7": 27,
    "8": 28,
    "9": 29,
    ":": 30,
    ";": 31,
    "<": 32,
    "=": 33,
    ">": 34,
    "?": 35,
    "@": 36,
    "[": 37,
    "\\": 38,
    "]": 39,
    "^": 40,
    "_": 41,
    "`": 42,
    "a": 43,
    "b": 44,
    "c": 45,
    "d": 46,
    "e": 47,
    "f": 48,
    "g": 49,
    "h": 50,
    "i": 51,
    "j": 52,
    "k": 53,
    "l": 54,
    "m": 55,
    "n": 56,
    "o": 57,
    "p": 58,
    "q": 59,
    "r": 60,
    "s": 61,
    "t": 62,
    "u": 63,
    "v": 64,
    "w": 65,
    "x": 66,
    "y": 67,
    "z": 68,
    "{": 69,
    "|": 70,
    "}": 71,
    "~": 72,
    "¡": 73,
    "¢": 74,
    "£": 75,
    "¤": 76,
    "¥": 77,
    "¦": 78,
    "§": 79,
    "¨": 80,
    "©": 81,
    "ª": 82,
    "«": 83,
    "¬": 84,
    "®": 85,
    "¯": 86,
    "°": 87,
    "±": 88,
    "²": 89,
    "³": 90,
    "´": 91,
    "µ": 92,
    "¶": 93,
    "·": 94,
    "¸": 95,
    "¹": 96,
    "º": 97,
    "»": 98,
    "¼": 99,
    "½": 100,
    "¾": 101,
    "¿": 102,
    "×": 103,
    "ß": 104,
    "à": 105,
    "á": 106,
    "â": 107,
    "ã": 108,
    "ä": 109,
    "å": 110,
    "æ": 111,
    "ç": 112,
    "è": 113,
    "é": 114,
    "ê": 115,
    "ë": 116,
    "ì": 117,
    "í": 118,
    "î": 119,
    "ï": 120,
    "ð": 121,
    "ñ": 122,
    "ò": 123,
    "ó": 124,
    "ô": 125,
    "õ": 126,
    "ö": 127,
    "÷": 128,
    "ø": 129,
    "ù": 130,
    "ú": 131,
    "û": 132,
    "ü": 133,
    "ý": 134,
    "þ": 135,
    "ÿ": 136,
    "ā": 137,
    "ă": 138,
    "ą": 139,
    "ć": 140,
    "č": 141,
    "đ": 142,
    "ē": 143,
    "ė": 144,
    "ę": 145,
    "ě": 146,
    "ĝ": 147,
    "ğ": 148,
    "ġ": 149,
    "ģ": 150,
    "ī": 151,
    "ı": 152,
    "ķ": 153,
    "ł": 154,
    "ń": 155,
    "ň": 156,
    "ŋ": 157,
    "ō": 158,
    "ő": 159,
    "œ": 160,
    "ř": 161,
    "ś": 162,
    "ş": 163,
    "š": 164,
    "ţ": 165,
    "ū": 166,
    "ů": 167,
    "ű": 168,
    "ź": 169,
    "ż": 170,
    "ž": 171,
    "ƒ": 172,
    "ơ": 173,
    "ư": 174,
    "ǧ": 175,
    "ș": 176,
    "ț": 177,
    "ɑ": 178,
    "ə": 179,
    "ɩ": 180,
    "ɪ": 181,
    "ɾ": 182,
    "ʹ": 183,
    "ʼ": 184,
    "ʿ": 185,
    "ˆ": 186,
    "ˈ": 187,
    "˚": 188,
    "˜": 189,
    "ˮ": 190,
    "́": 191,
    "̂": 192,
    "̆": 193,
    "̇": 194,
    "̈": 195,
    "̌": 196,
    "̧": 197,
    "ͼ": 198,
    "ά": 199,
    "έ": 200,
    "ή": 201,
    "ί": 202,
    "α": 203,
    "β": 204,
    "γ": 205,
    "δ": 206,
    "ε": 207,
    "ζ": 208,
    "η": 209,
    "θ": 210,
    "ι": 211,
    "κ": 212,
    "λ": 213,
    "μ": 214,
    "ν": 215,
    "ξ": 216,
    "ο": 217,
    "π": 218,
    "ρ": 219,
    "ς": 220,
    "σ": 221,
    "τ": 222,
    "υ": 223,
    "φ": 224,
    "χ": 225,
    "ψ": 226,
    "ω": 227,
    "ό": 228,
    "ύ": 229,
    "ώ": 230,
    "а": 231,
    "б": 232,
    "в": 233,
    "г": 234,
    "д": 235,
    "е": 236,
    "ж": 237,
    "з": 238,
    "и": 239,
    "й": 240,
    "к": 241,
    "л": 242,
    "м": 243,
    "н": 244,
    "о": 245,
    "п": 246,
    "р": 247,
    "с": 248,
    "т": 249,
    "у": 250,
    "ф": 251,
    "х": 252,
    "ц": 253,
    "ч": 254,
    "ш": 255,
    "щ": 256,
    "ъ": 257,
    "ы": 258,
    "ь": 259,
    "э": 260,
    "ю": 261,
    "я": 262,
    "ё": 263,
    "є": 264,
    "ѕ": 265,
    "і": 266,
    "ї": 267,
    "ј": 268,
    "қ": 269,
    "ҫ": 270,
    "һ": 271,
    "ә": 272,
    "ԁ": 273,
    "ա": 274,
    "գ": 275,
    "դ": 276,
    "ե": 277,
    "ի": 278,
    "լ": 279,
    "կ": 280,
    "հ": 281,
    "մ": 282,
    "յ": 283,
    "ն": 284,
    "ո": 285,
    "ս": 286,
    "վ": 287,
    "տ": 288,
    "ր": 289,
    "ւ": 290,
    "א": 291,
    "ב": 292,
    "ג": 293,
    "ד": 294,
    "ה": 295,
    "ו": 296,
    "ז": 297,
    "ח": 298,
    "ט": 299,
    "י": 300,
    "כ": 301,
    "ל": 302,
    "ם": 303,
    "מ": 304,
    "ן": 305,
    "נ": 306,
    "ס": 307,
    "ע": 308,
    "פ": 309,
    "צ": 310,
    "ק": 311,
    "ר": 312,
    "ש": 313,
    "ת": 314,
    "،": 315,
    "ء": 316,
    "آ": 317,
    "أ": 318,
    "ؤ": 319,
    "إ": 320,
    "ئ": 321,
    "ا": 322,
    "ب": 323,
    "ة": 324,
    "ت": 325,
    "ث": 326,
    "ج": 327,
    "ح": 328,
    "خ": 329,
    "د": 330,
    "ذ": 331,
    "ر": 332,
    "ز": 333,
    "س": 334,
    "ش": 335,
    "ص": 336,
    "ض": 337,
    "ط": 338,
    "ظ": 339,
    "ع": 340,
    "غ": 341,
    "ـ": 342,
    "ف": 343,
    "ق": 344,
    "ك": 345,
    "ل": 346,
    "م": 347,
    "ن": 348,
    "ه": 349,
    "و": 350,
    "ى": 351,
    "ي": 352,
    "ً": 353,
    "ٌ": 354,
    "ٍ": 355,
    "َ": 356,
    "ُ": 357,
    "ِ": 358,
    "ّ": 359,
    "ْ": 360,
    "٫": 361,
    "ٰ": 362,
    "ٱ": 363,
    "پ": 364,
    "چ": 365,
    "ک": 366,
    "گ": 367,
    "ی": 368,
    "۪": 369,
    "ं": 370,
    "क": 371,
    "त": 372,
    "द": 373,
    "न": 374,
    "प": 375,
    "म": 376,
    "य": 377,
    "र": 378,
    "ल": 379,
    "व": 380,
    "स": 381,
    "ह": 382,
    "ा": 383,
    "ि": 384,
    "ी": 385,
    "े": 386,
    "ो": 387,
    "्": 388,
    "।": 389,
    "ক": 390,
    "জ": 391,
    "ত": 392,
    "দ": 393,
    "ন": 394,
    "প": 395,
    "ব": 396,
    "ম": 397,
    "য": 398,
    "র": 399,
    "ল": 400,
    "স": 401,
    "হ": 402,
    "া": 403,
    "ি": 404,
    "ু": 405,
    "ে": 406,
    "্": 407,
    "য়": 408,
    "க": 409,
    "த": 410,
    "ி": 411,
    "ு": 412,
    "்": 413,
    "్": 414,
    "ಿ": 415,
    "್": 416,
    "ക": 417,
    "ന": 418,
    "ി": 419,
    "്": 420,
    "ก": 421,
    "ข": 422,
    "ค": 423,
    "ง": 424,
    "จ": 425,
    "ช": 426,
    "ด": 427,
    "ต": 428,
    "ท": 429,
    "น": 430,
    "บ": 431,
    "ป": 432,
    "พ": 433,
    "ม": 434,
    "ย": 435,
    "ร": 436,
    "ล": 437,
    "ว": 438,
    "ส": 439,
    "ห": 440,
    "อ": 441,
    "ะ": 442,
    "ั": 443,
    "า": 444,
    "ิ": 445,
    "ี": 446,
    "ื": 447,
    "ุ": 448,
    "ู": 449,
    "เ": 450,
    "แ": 451,
    "โ": 452,
    "ไ": 453,
    "่": 454,
    "้": 455,
    "์": 456,
    "ა": 457,
    "ე": 458,
    "ი": 459,
    "ლ": 460,
    "მ": 461,
    "ნ": 462,
    "ო": 463,
    "რ": 464,
    "ს": 465,
    "ᴏ": 466,
    "ḥ": 467,
    "ḳ": 468,
    "ṣ": 469,
    "ạ": 470,
    "ả": 471,
    "ấ": 472,
    "ế": 473,
    "ệ": 474,
    "ố": 475,
    "ộ": 476,
    "ớ": 477,
    "‐": 478,
    "‑": 479,
    "‒": 480,
    "–": 481,
    "—": 482,
    "―": 483,
    "‘": 484,
    "’": 485,
    "‚": 486,
    "“": 487,
    "”": 488,
    "„": 489,
    "‟": 490,
    "‡": 491,
    "•": 492,
    "․": 493,
    "…": 494,
    "′": 495,
    "″": 496,
    "‹": 497,
    "›": 498,
    "€": 499,
    "₺": 500,
    "℃": 501,
    "№": 502,
    "™": 503,
    "←": 504,
    "↑": 505,
    "→": 506,
    "↓": 507,
    "−": 508,
    "∙": 509,
    "√": 510,
    "≤": 511,
    "≥": 512,
    "⋆": 513,
    "─": 514,
    "█": 515,
    "■": 516,
    "▪": 517,
    "▫": 518,
    "▬": 519,
    "▶": 520,
    "▸": 521,
    "►": 522,
    "▻": 523,
    "▼": 524,
    "●": 525,
    "★": 526,
    "☆": 527,
    "☎": 528,
    "☝": 529,
    "☺": 530,
    "♀": 531,
    "♡": 532,
    "♥": 533,
    "♦": 534,
    "♪": 535,
    "♫": 536,
    "✅": 537,
    "✌": 538,
    "✓": 539,
    "✔": 540,
    "✨": 541,
    "❑": 542,
    "❗": 543,
    "❣": 544,
    "❤": 545,
    "❥": 546,
    "➖": 547,
    "➡": 548,
    "➤": 549,
    "⠀": 550,
    "⭐": 551,
    "、": 552,
    "。": 553,
    "「": 554,
    "」": 555,
    "【": 556,
    "】": 557,
    "〰": 558,
    "あ": 559,
    "い": 560,
    "う": 561,
    "お": 562,
    "か": 563,
    "が": 564,
    "き": 565,
    "く": 566,
    "こ": 567,
    "さ": 568,
    "し": 569,
    "す": 570,
    "そ": 571,
    "た": 572,
    "ち": 573,
    "っ": 574,
    "て": 575,
    "で": 576,
    "と": 577,
    "な": 578,
    "に": 579,
    "の": 580,
    "は": 581,
    "ま": 582,
    "み": 583,
    "も": 584,
    "ら": 585,
    "り": 586,
    "る": 587,
    "れ": 588,
    "を": 589,
    "ん": 590,
    "ア": 591,
    "ィ": 592,
    "イ": 593,
    "ウ": 594,
    "ェ": 595,
    "エ": 596,
    "オ": 597,
    "カ": 598,
    "ガ": 599,
    "キ": 600,
    "ク": 601,
    "グ": 602,
    "コ": 603,
    "サ": 604,
    "シ": 605,
    "ジ": 606,
    "ス": 607,
    "ズ": 608,
    "タ": 609,
    "ダ": 610,
    "チ": 611,
    "ッ": 612,
    "テ": 613,
    "デ": 614,
    "ト": 615,
    "ド": 616,
    "ナ": 617,
    "ニ": 618,
    "バ": 619,
    "パ": 620,
    "ビ": 621,
    "フ": 622,
    "ブ": 623,
    "プ": 624,
    "マ": 625,
    "ミ": 626,
    "ム": 627,
    "メ": 628,
    "ャ": 629,
    "ュ": 630,
    "ョ": 631,
    "ラ": 632,
    "リ": 633,
    "ル": 634,
    "レ": 635,
    "ロ": 636,
    "ン": 637,
    "・": 638,
    "ー": 639,
    "ㅋ": 640,
    "一": 641,
    "万": 642,
    "三": 643,
    "上": 644,
    "下": 645,
    "不": 646,
    "世": 647,
    "业": 648,
    "东": 649,
    "个": 650,
    "中": 651,
    "为": 652,
    "主": 653,
    "么": 654,
    "之": 655,
    "乐": 656,
    "九": 657,
    "买": 658,
    "了": 659,
    "争": 660,
    "事": 661,
    "二": 662,
    "五": 663,
    "交": 664,
    "产": 665,
    "京": 666,
    "人": 667,
    "什": 668,
    "今": 669,
    "代": 670,
    "以": 671,
    "件": 672,
    "会": 673,
    "体": 674,
    "作": 675,
    "信": 676,
    "免": 677,
    "全": 678,
    "公": 679,
    "六": 680,
    "内": 681,
    "円": 682,
    "准": 683,
    "出": 684,
    "分": 685,
    "划": 686,
    "利": 687,
    "到": 688,
    "前": 689,
    "加": 690,
    "动": 691,
    "势": 692,
    "北": 693,
    "区": 694,
    "十": 695,
    "单": 696,
    "南": 697,
    "县": 698,
    "友": 699,
    "双": 700,
    "发": 701,
    "可": 702,
    "台": 703,
    "号": 704,
    "司": 705,
    "合": 706,
    "同": 707,
    "名": 708,
    "吗": 709,
    "和": 710,
    "品": 711,
    "哪": 712,
    "器": 713,
    "四": 714,
    "国": 715,
    "图": 716,
    "在": 717,
    "地": 718,
    "场": 719,
    "址": 720,
    "坛": 721,
    "城": 722,
    "多": 723,
    "大": 724,
    "天": 725,
    "奖": 726,
    "女": 727,
    "好": 728,
    "如": 729,
    "姐": 730,
    "娱": 731,
    "子": 732,
    "学": 733,
    "安": 734,
    "完": 735,
    "官": 736,
    "定": 737,
    "宝": 738,
    "客": 739,
    "家": 740,
    "小": 741,
    "少": 742,
    "山": 743,
    "川": 744,
    "州": 745,
    "工": 746,
    "巧": 747,
    "市": 748,
    "平": 749,
    "年": 750,
    "广": 751,
    "库": 752,
    "度": 753,
    "开": 754,
    "式": 755,
    "录": 756,
    "彩": 757,
    "影": 758,
    "律": 759,
    "微": 760,
    "心": 761,
    "快": 762,
    "怎": 763,
    "性": 764,
    "情": 765,
    "成": 766,
    "我": 767,
    "房": 768,
    "手": 769,
    "打": 770,
    "技": 771,
    "投": 772,
    "报": 773,
    "排": 774,
    "推": 775,
    "提": 776,
    "搐": 777,
    "播": 778,
    "数": 779,
    "文": 780,
    "料": 781,
    "新": 782,
    "方": 783,
    "日": 784,
    "时": 785,
    "是": 786,
    "最": 787,
    "月": 788,
    "有": 789,
    "期": 790,
    "本": 791,
    "机": 792,
    "来": 793,
    "枚": 794,
    "果": 795,
    "样": 796,
    "榜": 797,
    "正": 798,
    "民": 799,
    "水": 800,
    "江": 801,
    "法": 802,
    "注": 803,
    "海": 804,
    "港": 805,
    "游": 806,
    "澳": 807,
    "爱": 808,
    "片": 809,
    "版": 810,
    "牌": 811,
    "物": 812,
    "特": 813,
    "玄": 814,
    "王": 815,
    "玩": 816,
    "现": 817,
    "球": 818,
    "理": 819,
    "生": 820,
    "用": 821,
    "田": 822,
    "电": 823,
    "界": 824,
    "癟": 825,
    "白": 826,
    "百": 827,
    "的": 828,
    "直": 829,
    "眉": 830,
    "看": 831,
    "県": 832,
    "真": 833,
    "码": 834,
    "神": 835,
    "票": 836,
    "福": 837,
    "站": 838,
    "第": 839,
    "算": 840,
    "精": 841,
    "系": 842,
    "繹": 843,
    "红": 844,
    "线": 845,
    "经": 846,
    "结": 847,
    "网": 848,
    "美": 849,
    "群": 850,
    "羹": 851,
    "老": 852,
    "肖": 853,
    "能": 854,
    "自": 855,
    "色": 856,
    "花": 857,
    "莽": 858,
    "蓷": 859,
    "蓾": 860,
    "蔒": 861,
    "蔞": 862,
    "行": 863,
    "表": 864,
    "西": 865,
    "視": 866,
    "覺": 867,
    "规": 868,
    "视": 869,
    "解": 870,
    "计": 871,
    "记": 872,
    "论": 873,
    "说": 874,
    "请": 875,
    "谋": 876,
    "财": 877,
    "费": 878,
    "资": 879,
    "赛": 880,
    "赢": 881,
    "走": 882,
    "车": 883,
    "软": 884,
    "载": 885,
    "运": 886,
    "选": 887,
    "通": 888,
    "道": 889,
    "部": 890,
    "里": 891,
    "重": 892,
    "金": 893,
    "钱": 894,
    "门": 895,
    "集": 896,
    "霸": 897,
    "页": 898,
    "香": 899,
    "马": 900,
    "高": 901,
    "龙": 902,
    "가": 903,
    "고": 904,
    "기": 905,
    "는": 906,
    "다": 907,
    "로": 908,
    "쀀": 909,
    "사": 910,
    "서": 911,
    "스": 912,
    "시": 913,
    "에": 914,
    "을": 915,
    "의": 916,
    "이": 917,
    "인": 918,
    "지": 919,
    "하": 920,
    "한": 921,
    "ﬁ": 922,
    "ﬂ": 923,
    "﴾": 924,
    "﴿": 925,
    "️": 926,
    "！": 927,
    "（": 928,
    "）": 929,
    "，": 930,
    "：": 931,
    "🇷": 932,
    "🇹": 933,
    "🌟": 934,
    "🌷": 935,
    "🌸": 936,
    "🌹": 937,
    "🌺": 938,
    "🌼": 939,
    "🌿": 940,
    "🍀": 941,
    "🍁": 942,
    "🍂": 943,
    "🍃": 944,
    "🎀": 945,
    "🎁": 946,
    "🎈": 947,
    "🎉": 948,
    "🏻": 949,
    "🏼": 950,
    "👇": 951,
    "👈": 952,
    "👉": 953,
    "👌": 954,
    "👍": 955,
    "👏": 956,
    "💃": 957,
    "💎": 958,
    "💐": 959,
    "💕": 960,
    "💖": 961,
    "💗": 962,
    "💙": 963,
    "💚": 964,
    "💛": 965,
    "💜": 966,
    "💞": 967,
    "💥": 968,
    "💪": 969,
    "💫": 970,
    "💯": 971,
    "📌": 972,
    "📍": 973,
    "📞": 974,
    "📱": 975,
    "📲": 976,
    "🔥": 977,
    "🔴": 978,
    "🔸": 979,
    "🔹": 980,
    "😀": 981,
    "😁": 982,
    "😂": 983,
    "😃": 984,
    "😄": 985,
    "😅": 986,
    "😇": 987,
    "😉": 988,
    "😊": 989,
    "😋": 990,
    "😍": 991,
    "😎": 992,
    "😔": 993,
    "😘": 994,
    "😛": 995,
    "😢": 996,
    "🙁": 997,
    "🙂": 998,
    "🙈": 999,
    "🙋": 1000,
    "🙏": 1001,
    "🤔": 1002,
    "🤗": 1003,
    "🤣": 1004,
    "##4": 1005,
    "##9": 1006,
    "##8": 1007,
    "##0": 1008,
    "##c": 1009,
    "##a": 1010,
    "##t": 1011,
    "##l": 1012,
    "##u": 1013,
    "##n": 1014,
    "##y": 1015,
    "##”": 1016,
    "##o": 1017,
    "##s": 1018,
    "##¸": 1019,
    "##m": 1020,
    "##k": 1021,
    "##z": 1022,
    "##i": 1023,
    "##r": 1024,
    "##f": 1025,
    "##p": 1026,
    "##b": 1027,
    "##e": 1028,
    "##h": 1029,
    "##v": 1030,
    "##ı": 1031,
    "##2": 1032,
    "##1": 1033,
    "##g": 1034,
    "##ş": 1035,
    "##ý": 1036,
    "##þ": 1037,
    "##w": 1038,
    "##d": 1039,
    "##…": 1040,
    "##ç": 1041,
    "##时": 1042,
    "##彩": 1043,
    "##单": 1044,
    "##双": 1045,
    "##十": 1046,
    "##期": 1047,
    "##投": 1048,
    "##方": 1049,
    "##’": 1050,
    "##ü": 1051,
    "##ö": 1052,
    "##ğ": 1053,
    "##3": 1054,
    "##j": 1055,
    "##ê": 1056,
    "##站": 1057,
    "##5": 1058,
    "##万": 1059,
    "##用": 1060,
    "##表": 1061,
    "##式": 1062,
    "##â": 1063,
    "##q": 1064,
    "##ñ": 1065,
    "##ʹ": 1066,
    "##é": 1067,
    "##е": 1068,
    "##б": 1069,
    "##с": 1070,
    "##а": 1071,
    "##й": 1072,
    "##т": 1073,
    "##7": 1074,
    "##6": 1075,
    "##x": 1076,
    "##‘": 1077,
    "##̇": 1078,
    "##»": 1079,
    "##“": 1080,
    "##″": 1081,
    "##‟": 1082,
    "##ä": 1083,
    "##ÿ": 1084,
    "##м": 1085,
    "##н": 1086,
    "##и": 1087,
    "##к": 1088,
    "##น": 1089,
    "##ื": 1090,
    "##่": 1091,
    "##อ": 1092,
    "##ง": 1093,
    "##จ": 1094,
    "##า": 1095,
    "##ก": 1096,
    "##ม": 1097,
    "##ี": 1098,
    "##เ": 1099,
    "##ว": 1100,
    "##บ": 1101,
    "##ไ": 1102,
    "##ต": 1103,
    "##์": 1104,
    "##ห": 1105,
    "##ค": 1106,
    "##ู": 1107,
    "##ล": 1108,
    "##ุ": 1109,
    "##ร": 1110,
    "##ท": 1111,
    "##ิ": 1112,
    "##ั": 1113,
    "##ย": 1114,
    "##ข": 1115,
    "##æ": 1116,
    "##´": 1117,
    "##–": 1118,
    "##х": 1119,
    "##ф": 1120,
    "##р": 1121,
    "##个": 1122,
    "##网": 1123,
    "##玩": 1124,
    "##最": 1125,
    "##多": 1126,
    "##®": 1127,
    "##ð": 1128,
    "##¿": 1129,
    "##ã": 1130,
    "##³": 1131,
    "##±": 1132,
    "##о": 1133,
    "##л": 1134,
    "##у": 1135,
    "##ч": 1136,
    "##г": 1137,
    "##û": 1138,
    "##算": 1139,
    "##经": 1140,
    "##注": 1141,
    "##ï": 1142,
    "##з": 1143,
    "##д": 1144,
    "##ж": 1145,
    "##ы": 1146,
    "##ģ": 1147,
    "##开": 1148,
    "##奖": 1149,
    "##号": 1150,
    "##码": 1151,
    "##ò": 1152,
    "##ל": 1153,
    "##א": 1154,
    "##ó": 1155,
    "##ë": 1156,
    "##ِ": 1157,
    "##د": 1158,
    "##ْ": 1159,
    "##ن": 1160,
    "##َ": 1161,
    "##ا": 1162,
    "##ه": 1163,
    "##ُ": 1164,
    "##م": 1165,
    "##ो": 1166,
    "##½": 1167,
    "##ر": 1168,
    "##ق": 1169,
    "##ي": 1170,
    "##ة": 1171,
    "##ج": 1172,
    "##로": 1173,
    "##에": 1174,
    "##¶": 1175,
    "##أ": 1176,
    "##ف": 1177,
    "##ض": 1178,
    "##á": 1179,
    "##ú": 1180,
    "##ɑ": 1181,
    "##国": 1182,
    "##金": 1183,
    "##一": 1184,
    "##二": 1185,
    "##资": 1186,
    "##料": 1187,
    "##ل": 1188,
    "##ّ": 1189,
    "##业": 1190,
    "##î": 1191,
    "##å": 1192,
    "##̂": 1193,
    "##đ": 1194,
    "##—": 1195,
    "##年": 1196,
    "##月": 1197,
    "##前": 1198,
    "##í": 1199,
    "##в": 1200,
    "##̈": 1201,
    "##̧": 1202,
    "##̆": 1203,
    "##是": 1204,
    "##以": 1205,
    "##民": 1206,
    "##主": 1207,
    "##集": 1208,
    "##中": 1209,
    "##为": 1210,
    "##来": 1211,
    "##的": 1212,
    "##有": 1213,
    "##性": 1214,
    "##和": 1215,
    "##律": 1216,
    "##。": 1217,
    "##部": 1218,
    "##记": 1219,
    "##第": 1220,
    "##、": 1221,
    "##，": 1222,
    "##平": 1223,
    "##心": 1224,
    "##全": 1225,
    "##地": 1226,
    "##作": 1227,
    "##出": 1228,
    "##发": 1229,
    "##本": 1230,
    "##规": 1231,
    "##ш": 1232,
    "##ά": 1233,
    "##λ": 1234,
    "##ο": 1235,
    "##υ": 1236,
    "##ν": 1237,
    "##²": 1238,
    "##و": 1239,
    "##ت": 1240,
    "##،": 1241,
    "##τ": 1242,
    "##ί": 1243,
    "##ζ": 1244,
    "##α": 1245,
    "##ς": 1246,
    "##神": 1247,
    "##通": 1248,
    "##天": 1249,
    "##报": 1250,
    "##图": 1251,
    "##ș": 1252,
    "##😍": 1253,
    "##ą": 1254,
    "##ј": 1255,
    "##🙋": 1256,
    "##分": 1257,
    "##）": 1258,
    "##高": 1259,
    "##度": 1260,
    "##到": 1261,
    "##好": 1262,
    "##「": 1263,
    "##」": 1264,
    "##果": 1265,
    "##球": 1266,
    "##加": 1267,
    "##！": 1268,
    "##י": 1269,
    "##צ": 1270,
    "##ר": 1271,
    "##页": 1272,
    "##™": 1273,
    "##特": 1274,
    "##😀": 1275,
    "##ì": 1276,
    "##ū": 1277,
    "##🍀": 1278,
    "##õ": 1279,
    "##️": 1280,
    "##ś": 1281,
    "##§": 1282,
    "##少": 1283,
    "##了": 1284,
    "##º": 1285,
    "##ி": 1286,
    "##ு": 1287,
    "##த": 1288,
    "##்": 1289,
    "##க": 1290,
    "##北": 1291,
    "##京": 1292,
    "##赛": 1293,
    "##车": 1294,
    "##游": 1295,
    "##°": 1296,
    "##«": 1297,
    "##€": 1298,
    "##œ": 1299,
    "##🏻": 1300,
    "##¨": 1301,
    "##ѕ": 1302,
    "##っ": 1303,
    "##こ": 1304,
    "##う": 1305,
    "##ら": 1306,
    "##し": 1307,
    "##ε": 1308,
    "##ρ": 1309,
    "##ύ": 1310,
    "##π": 1311,
    "##ξ": 1312,
    "##γ": 1313,
    "##σ": 1314,
    "##↓": 1315,
    "##„": 1316,
    "##ю": 1317,
    "##羹": 1318,
    "##ɾ": 1319,
    "##山": 1320,
    "##は": 1321,
    "##な": 1322,
    "##я": 1323,
    "##˜": 1324,
    "##😊": 1325,
    "##🌸": 1326,
    "##ו": 1327,
    "##ד": 1328,
    "##ה": 1329,
    "##・": 1330,
    "##エ": 1331,
    "##ン": 1332,
    "##ル": 1333,
    "##动": 1334,
    "##重": 1335,
    "##ь": 1336,
    "##ā": 1337,
    "##ī": 1338,
    "##样": 1339,
    "##下": 1340,
    "##载": 1341,
    "##正": 1342,
    "##五": 1343,
    "##―": 1344,
    "##್": 1345,
    "##ب": 1346,
    "##′": 1347,
    "##스": 1348,
    "##生": 1349,
    "##电": 1350,
    "##影": 1351,
    "##ك": 1352,
    "##ى": 1353,
    "##ß": 1354,
    "##红": 1355,
    "##ţ": 1356,
    "##ส": 1357,
    "##้": 1358,
    "##ġ": 1359,
    "##ئ": 1360,
    "##س": 1361,
    "##ー": 1362,
    "##ト": 1363,
    "##に": 1364,
    "##た": 1365,
    "##り": 1366,
    "##覺": 1367,
    "##ɪ": 1368,
    "##र": 1369,
    "##्": 1370,
    "##ल": 1371,
    "##フ": 1372,
    "##ロ": 1373,
    "##ド": 1374,
    "##レ": 1375,
    "##🎀": 1376,
    "##ž": 1377,
    "##ո": 1378,
    "##յ": 1379,
    "##կ": 1380,
    "##տ": 1381,
    "##ե": 1382,
    "##լ": 1383,
    "##п": 1384,
    "##美": 1385,
    "##ち": 1386,
    "##♥": 1387,
    "##ん": 1388,
    "##い": 1389,
    "##の": 1390,
    "##ב": 1391,
    "##ש": 1392,
    "##色": 1393,
    "##і": 1394,
    "##ι": 1395,
    "##ე": 1396,
    "##მ": 1397,
    "##ი": 1398,
    "##ნ": 1399,
    "##ა": 1400,
    "##რ": 1401,
    "##›": 1402,
    "##¬": 1403,
    "##μ": 1404,
    "##手": 1405,
    "##论": 1406,
    "##坛": 1407,
    "##ř": 1408,
    "##📌": 1409,
    "##κ": 1410,
    "##פ": 1411,
    "##¾": 1412,
    "##ę": 1413,
    "##赢": 1414,
    "##家": 1415,
    "##מ": 1416,
    "##ט": 1417,
    "##ע": 1418,
    "##ק": 1419,
    "##ή": 1420,
    "##ր": 1421,
    "##ع": 1422,
    "##β": 1423,
    "##ǧ": 1424,
    "##ї": 1425,
    "##ա": 1426,
    "##մ": 1427,
    "##ւ": 1428,
    "##ն": 1429,
    "##香": 1430,
    "##港": 1431,
    "##视": 1432,
    "##直": 1433,
    "##播": 1434,
    "##ะ": 1435,
    "##合": 1436,
    "##玄": 1437,
    "##机": 1438,
    "##イ": 1439,
    "##·": 1440,
    "##¯": 1441,
    "##ə": 1442,
    "##成": 1443,
    "##人": 1444,
    "##ԁ": 1445,
    "##ô": 1446,
    "##η": 1447,
    "##小": 1448,
    "##情": 1449,
    "##가": 1450,
    "##고": 1451,
    "##ø": 1452,
    "##พ": 1453,
    "##ป": 1454,
    "##😂": 1455,
    "##😄": 1456,
    "##ё": 1457,
    "##ƒ": 1458,
    "##́": 1459,
    "##إ": 1460,
    "##ی": 1461,
    "##ٰ": 1462,
    "##ű": 1463,
    "##ě": 1464,
    "##ز": 1465,
    "##💛": 1466,
    "##シ": 1467,
    "##ダ": 1468,
    "##で": 1469,
    "##す": 1470,
    "##今": 1471,
    "##日": 1472,
    "##ア": 1473,
    "##チ": 1474,
    "##ェ": 1475,
    "##ス": 1476,
    "##ح": 1477,
    "##☺": 1478,
    "##¼": 1479,
    "##ấ": 1480,
    "##选": 1481,
    "##代": 1482,
    "##理": 1483,
    "##è": 1484,
    "##か": 1485,
    "##ミ": 1486,
    "##כ": 1487,
    "##ז": 1488,
    "##ª": 1489,
    "##ź": 1490,
    "##👈": 1491,
    "##া": 1492,
    "##ে": 1493,
    "##।": 1494,
    "##ė": 1495,
    "##š": 1496,
    "##テ": 1497,
    "##ィ": 1498,
    "##谋": 1499,
    "##ս": 1500,
    "##ի": 1501,
    "##ء": 1502,
    "##录": 1503,
    "##נ": 1504,
    "##হ": 1505,
    "##দ": 1506,
    "##ু": 1507,
    "##জ": 1508,
    "##্": 1509,
    "##ম": 1510,
    "##ন": 1511,
    "##ц": 1512,
    "##🙏": 1513,
    "##票": 1514,
    "##🌹": 1515,
    "##内": 1516,
    "##肖": 1517,
    "##💕": 1518,
    "##ת": 1519,
    "##❤": 1520,
    "##ć": 1521,
    "##ش": 1522,
    "##ط": 1523,
    "##计": 1524,
    "##划": 1525,
    "##て": 1526,
    "##上": 1527,
    "##¤": 1528,
    "##花": 1529,
    "##大": 1530,
    "##à": 1531,
    "##眉": 1532,
    "##爱": 1533,
    "##♀": 1534,
    "##δ": 1535,
    "##₺": 1536,
    "##র": 1537,
    "##ি": 1538,
    "##🇹": 1539,
    "##市": 1540,
    "##区": 1541,
    "##哪": 1542,
    "##行": 1543,
    "##ッ": 1544,
    "##タ": 1545,
    "##さ": 1546,
    "##四": 1547,
    "##🇷": 1548,
    "##이": 1549,
    "##现": 1550,
    "##场": 1551,
    "##打": 1552,
    "##×": 1553,
    "##ा": 1554,
    "##े": 1555,
    "##¢": 1556,
    "##č": 1557,
    "##🤗": 1558,
    "##😉": 1559,
    "##ლ": 1560,
    "##ს": 1561,
    "##龙": 1562,
    "##न": 1563,
    "##स": 1564,
    "##क": 1565,
    "##新": 1566,
    "##道": 1567,
    "##¦": 1568,
    "##視": 1569,
    "##ョ": 1570,
    "##バ": 1571,
    "##グ": 1572,
    "##ő": 1573,
    "##φ": 1574,
    "##ώ": 1575,
    "##ク": 1576,
    "##ム": 1577,
    "##‚": 1578,
    "##ů": 1579,
    "##结": 1580,
    "##系": 1581,
    "##物": 1582,
    "##自": 1583,
    "##子": 1584,
    "##不": 1585,
    "##推": 1586,
    "##同": 1587,
    "##西": 1588,
    "##ḥ": 1589,
    "##文": 1590,
    "##事": 1591,
    "##ذ": 1592,
    "##ả": 1593,
    "##ˆ": 1594,
    "##官": 1595,
    "##🎈": 1596,
    "##💚": 1597,
    "##£": 1598,
    "##👍": 1599,
    "##ラ": 1600,
    "##•": 1601,
    "##÷": 1602,
    "##ł": 1603,
    "##ظ": 1604,
    "##ٍ": 1605,
    "##☆": 1606,
    "##●": 1607,
    "##한": 1608,
    "##지": 1609,
    "##다": 1610,
    "##−": 1611,
    "##😇": 1612,
    "##😘": 1613,
    "##世": 1614,
    "##田": 1615,
    "##真": 1616,
    "##も": 1617,
    "##인": 1618,
    "##ό": 1619,
    "##ω": 1620,
    "##🍁": 1621,
    "##🍂": 1622,
    "##群": 1623,
    "##广": 1624,
    "##：": 1625,
    "##能": 1626,
    "##解": 1627,
    "##ी": 1628,
    "##品": 1629,
    "##🤣": 1630,
    "##れ": 1631,
    "##ㅋ": 1632,
    "##դ": 1633,
    "##ә": 1634,
    "##ด": 1635,
    "##学": 1636,
    "##会": 1637,
    "##ـ": 1638,
    "##🏼": 1639,
    "##👏": 1640,
    "##デ": 1641,
    "##微": 1642,
    "##信": 1643,
    "##マ": 1644,
    "##사": 1645,
    "##을": 1646,
    "##🙈": 1647,
    "##在": 1648,
    "##线": 1649,
    "##☎": 1650,
    "##վ": 1651,
    "##工": 1652,
    "##海": 1653,
    "##キ": 1654,
    "##ż": 1655,
    "##غ": 1656,
    "##ث": 1657,
    "##ĝ": 1658,
    "##آ": 1659,
    "##خ": 1660,
    "##ص": 1661,
    "##ﬂ": 1662,
    "##产": 1663,
    "##의": 1664,
    "##姐": 1665,
    "##财": 1666,
    "##库": 1667,
    "##ウ": 1668,
    "##コ": 1669,
    "##ズ": 1670,
    "##﴿": 1671,
    "##宝": 1672,
    "##水": 1673,
    "##¥": 1674,
    "##ń": 1675,
    "##あ": 1676,
    "##💫": 1677,
    "##プ": 1678,
    "##三": 1679,
    "##怎": 1680,
    "##么": 1681,
    "##免": 1682,
    "##त": 1683,
    "##争": 1684,
    "##霸": 1685,
    "##快": 1686,
    "##走": 1687,
    "##势": 1688,
    "##✌": 1689,
    "##メ": 1690,
    "##ニ": 1691,
    "##ュ": 1692,
    "##が": 1693,
    "##る": 1694,
    "##を": 1695,
    "##く": 1696,
    "##お": 1697,
    "##き": 1698,
    "##ま": 1699,
    "##¹": 1700,
    "##什": 1701,
    "##乐": 1702,
    "##ͼ": 1703,
    "##と": 1704,
    "##ň": 1705,
    "##软": 1706,
    "##件": 1707,
    "##✔": 1708,
    "##ʿ": 1709,
    "##‐": 1710,
    "##‑": 1711,
    "##ă": 1712,
    "##里": 1713,
    "##э": 1714,
    "##👉": 1715,
    "##ᴏ": 1716,
    "##‹": 1717,
    "##オ": 1718,
    "##щ": 1719,
    "##시": 1720,
    "##界": 1721,
    "##川": 1722,
    "##体": 1723,
    "##六": 1724,
    "##θ": 1725,
    "##ി": 1726,
    "##ക": 1727,
    "##്": 1728,
    "##χ": 1729,
    "##پ": 1730,
    "##ক": 1731,
    "##ত": 1732,
    "##ব": 1733,
    "##য": 1734,
    "##স": 1735,
    "##运": 1736,
    "##ं": 1737,
    "##व": 1738,
    "##如": 1739,
    "##费": 1740,
    "##版": 1741,
    "##说": 1742,
    "##ک": 1743,
    "##リ": 1744,
    "##可": 1745,
    "##ह": 1746,
    "##☝": 1747,
    "##ō": 1748,
    "##吗": 1749,
    "##ŋ": 1750,
    "##马": 1751,
    "##😁": 1752,
    "##利": 1753,
    "##˚": 1754,
    "##江": 1755,
    "##台": 1756,
    "##榜": 1757,
    "##交": 1758,
    "##九": 1759,
    "##み": 1760,
    "##サ": 1761,
    "##ジ": 1762,
    "##©": 1763,
    "##州": 1764,
    "##ъ": 1765,
    "##ブ": 1766,
    "##💖": 1767,
    "##安": 1768,
    "##房": 1769,
    "##ً": 1770,
    "##💞": 1771,
    "##南": 1772,
    "##द": 1773,
    "##定": 1774,
    "##百": 1775,
    "##パ": 1776,
    "##司": 1777,
    "##提": 1778,
    "##（": 1779,
    "##→": 1780,
    "##প": 1781,
    "##ช": 1782,
    "##έ": 1783,
    "##👌": 1784,
    "##💥": 1785,
    "##‡": 1786,
    "##¡": 1787,
    "##є": 1788,
    "##县": 1789,
    "##❥": 1790,
    "##址": 1791,
    "##カ": 1792,
    "##女": 1793,
    "##▼": 1794,
    "##ē": 1795,
    "##之": 1796,
    "##排": 1797,
    "##ג": 1798,
    "##公": 1799,
    "##🌼": 1800,
    "##王": 1801,
    "##는": 1802,
    "##ٌ": 1803,
    "##հ": 1804,
    "##🎉": 1805,
    "##【": 1806,
    "##】": 1807,
    "##法": 1808,
    "##片": 1809,
    "##ﬁ": 1810,
    "##ס": 1811,
    "##准": 1812,
    "##ო": 1813,
    "##ח": 1814,
    "##我": 1815,
    "##գ": 1816,
    "##ҫ": 1817,
    "##ಿ": 1818,
    "##ם": 1819,
    "##娱": 1820,
    "##城": 1821,
    "##📞": 1822,
    "##数": 1823,
    "##ù": 1824,
    "##福": 1825,
    "##💪": 1826,
    "##★": 1827,
    "##ˈ": 1828,
    "##ʼ": 1829,
    "##白": 1830,
    "##门": 1831,
    "##技": 1832,
    "##ল": 1833,
    "##۪": 1834,
    "##枚": 1835,
    "##■": 1836,
    "##ן": 1837,
    "##💃": 1838,
    "##老": 1839,
    "##客": 1840,
    "##گ": 1841,
    "##√": 1842,
    "##∙": 1843,
    "##ư": 1844,
    "##円": 1845,
    "##そ": 1846,
    "##▪": 1847,
    "##看": 1848,
    "##ؤ": 1849,
    "##😎": 1850,
    "##🔥": 1851,
    "##µ": 1852,
    "##һ": 1853,
    "##钱": 1854,
    "##癟": 1855,
    "##器": 1856,
    "##买": 1857,
    "##❗": 1858,
    "##巧": 1859,
    "##💙": 1860,
    "##🍃": 1861,
    "##ạ": 1862,
    "##म": 1863,
    "##ガ": 1864,
    "##ˮ": 1865,
    "##东": 1866,
    "##̌": 1867,
    "##友": 1868,
    "##ന": 1869,
    "##😃": 1870,
    "##─": 1871,
    "##完": 1872,
    "##ャ": 1873,
    "##ナ": 1874,
    "##ț": 1875,
    "##💜": 1876,
    "##ビ": 1877,
    "##โ": 1878,
    "##♡": 1879,
    "##▶": 1880,
    "##请": 1881,
    "##แ": 1882,
    "##😔": 1883,
    "##✅": 1884,
    "##牌": 1885,
    "##қ": 1886,
    "##하": 1887,
    "##►": 1888,
    "##प": 1889,
    "##🌟": 1890,
    "##ệ": 1891,
    "##⠀": 1892,
    "##🤔": 1893,
    "##🙂": 1894,
    "##ṣ": 1895,
    "##్": 1896,
    "##기": 1897,
    "##ψ": 1898,
    "##😋": 1899,
    "##🔴": 1900,
    "##ớ": 1901,
    "##ḳ": 1902,
    "##ɩ": 1903,
    "##県": 1904,
    "##📲": 1905,
    "##ि": 1906,
    "##名": 1907,
    "##精": 1908,
    "##➤": 1909,
    "##👇": 1910,
    "##繹": 1911,
    "##य": 1912,
    "##😢": 1913,
    "##℃": 1914,
    "##莽": 1915,
    "##🔹": 1916,
    "##য়": 1917,
    "##ķ": 1918,
    "##🌿": 1919,
    "##ٱ": 1920,
    "##♪": 1921,
    "##✨": 1922,
    "##چ": 1923,
    "##🎁": 1924,
    "##▬": 1925,
    "##😅": 1926,
    "##№": 1927,
    "##📱": 1928,
    "##서": 1929,
    "##➡": 1930,
    "##💗": 1931,
    "##‒": 1932,
    "##≤": 1933,
    "##💯": 1934,
    "##▻": 1935,
    "##💐": 1936,
    "##💎": 1937,
    "##ế": 1938,
    "##♫": 1939,
    "##❣": 1940,
    "##⭐": 1941,
    "##蔒": 1942,
    "##🌺": 1943,
    "##﴾": 1944,
    "##🌷": 1945,
    "##≥": 1946,
    "##澳": 1947,
    "##↑": 1948,
    "##📍": 1949,
    "##➖": 1950,
    "##٫": 1951,
    "##█": 1952,
    "##🙁": 1953,
    "##😛": 1954,
    "##쀀": 1955,
    "##✓": 1956,
    "##♦": 1957,
    "##ơ": 1958,
    "##ố": 1959,
    "##〰": 1960,
    "##←": 1961,
    "##🔸": 1962,
    "##ộ": 1963,
    "##▫": 1964,
    "##蓷": 1965,
    "##⋆": 1966,
    "##․": 1967,
    "##蓾": 1968,
    "##蔞": 1969,
    "##▸": 1970,
    "##la": 1971,
    "##er": 1972,
    "##in": 1973,
    "##an": 1974,
    "##en": 1975,
    "##ın": 1976,
    "##ir": 1977,
    "##ar": 1978,
    "##il": 1979,
    "##lar": 1980,
    "##ma": 1981,
    "##ek": 1982,
    "##el": 1983,
    "##ak": 1984,
    "##le": 1985,
    "##da": 1986,
    "##un": 1987,
    "##de": 1988,
    "##or": 1989,
    "##ler": 1990,
    "##lı": 1991,
    "ve": 1992,
    "bir": 1993,
    "##iy": 1994,
    "##et": 1995,
    "##im": 1996,
    "##es": 1997,
    "##iz": 1998,
    "##on": 1999,
    "##ik": 2000,
    "##at": 2001,
    "##ur": 2002,
    "##ay": 2003,
    "##ır": 2004,
    "##lan": 2005,
    "##as": 2006,
    "ya": 2007,
    "##ün": 2008,
    "de": 2009,
    "##al": 2010,
    "bu": 2011,
    "##em": 2012,
    "##is": 2013,
    "ol": 2014,
    "##ür": 2015,
    "##di": 2016,
    "##am": 2017,
    "##ey": 2018,
    "##dı": 2019,
    "da": 2020,
    "##iş": 2021,
    "ba": 2022,
    "##it": 2023,
    "ka": 2024,
    "##um": 2025,
    "##den": 2026,
    "##ların": 2027,
    "##ım": 2028,
    "##ız": 2029,
    "##ya": 2030,
    "##ul": 2031,
    "##dan": 2032,
    "##li": 2033,
    "gö": 2034,
    "##st": 2035,
    "iç": 2036,
    "ar": 2037,
    "##ıl": 2038,
    "##ok": 2039,
    "##ları": 2040,
    "sa": 2041,
    "##ık": 2042,
    "yap": 2043,
    "##ini": 2044,
    "##ış": 2045,
    "##du": 2046,
    "##ında": 2047,
    "##ol": 2048,
    "i̇": 2049,
    "##ine": 2050,
    "##ta": 2051,
    "##ec": 2052,
    "##inde": 2053,
    "an": 2054,
    "baş": 2055,
    "##bil": 2056,
    "##ük": 2057,
    "##yor": 2058,
    "için": 2059,
    "##mas": 2060,
    "##ti": 2061,
    "##az": 2062,
    "##esi": 2063,
    "##iyor": 2064,
    "al": 2065,
    "##mak": 2066,
    "##üz": 2067,
    "##leri": 2068,
    "##üm": 2069,
    "##dir": 2070,
    "##ğı": 2071,
    "##iler": 2072,
    "##eler": 2073,
    "##şt": 2074,
    "kar": 2075,
    "gör": 2076,
    "##ev": 2077,
    "##ca": 2078,
    "##ını": 2079,
    "##ra": 2080,
    "ile": 2081,
    "##cak": 2082,
    "son": 2083,
    "##me": 2084,
    "et": 2085,
    "##dır": 2086,
    "##tı": 2087,
    "##te": 2088,
    "bil": 2089,
    "##lık": 2090,
    "##mek": 2091,
    "in": 2092,
    "##ği": 2093,
    "##inin": 2094,
    "gel": 2095,
    "##uz": 2096,
    "ger": 2097,
    "##ce": 2098,
    "ver": 2099,
    "ay": 2100,
    "ön": 2101,
    "##iye": 2102,
    "kon": 2103,
    "##ha": 2104,
    "##oğ": 2105,
    "##ına": 2106,
    "##lu": 2107,
    "ta": 2108,
    "##eç": 2109,
    "##lik": 2110,
    "##ut": 2111,
    "en": 2112,
    "il": 2113,
    "oldu": 2114,
    "##ön": 2115,
    "##len": 2116,
    "##ara": 2117,
    "##ıs": 2118,
    "ne": 2119,
    "##larak": 2120,
    "değ": 2121,
    "ed": 2122,
    "##bi": 2123,
    "##unu": 2124,
    "kur": 2125,
    "ha": 2126,
    "##iniz": 2127,
    "##ez": 2128,
    "gi": 2129,
    "##uk": 2130,
    "##man": 2131,
    "##us": 2132,
    "##alı": 2133,
    "çok": 2134,
    "##cı": 2135,
    "##ması": 2136,
    "olarak": 2137,
    "##ro": 2138,
    "tür": 2139,
    "##şı": 2140,
    "##ip": 2141,
    "or": 2142,
    "iş": 2143,
    "##bilir": 2144,
    "yer": 2145,
    "##se": 2146,
    "##öy": 2147,
    "gün": 2148,
    "##üş": 2149,
    "bel": 2150,
    "kad": 2151,
    "ben": 2152,
    "##anı": 2153,
    "ko": 2154,
    "ma": 2155,
    "her": 2156,
    "ist": 2157,
    "##ül": 2158,
    "##ından": 2159,
    "20": 2160,
    "##ka": 2161,
    "##mış": 2162,
    "##ed": 2163,
    "olan": 2164,
    "##tan": 2165,
    "on": 2166,
    "##lay": 2167,
    "daha": 2168,
    "yıl": 2169,
    "##ki": 2170,
    "##uş": 2171,
    "##ası": 2172,
    "##tir": 2173,
    "bü": 2174,
    "##miş": 2175,
    "var": 2176,
    "##lama": 2177,
    "aç": 2178,
    "olduğ": 2179,
    "##op": 2180,
    "öz": 2181,
    "türk": 2182,
    "kul": 2183,
    "bul": 2184,
    "##aki": 2185,
    "##yon": 2186,
    "##imiz": 2187,
    "sür": 2188,
    "geç": 2189,
    "ken": 2190,
    "yar": 2191,
    "uy": 2192,
    "ara": 2193,
    "##eni": 2194,
    "##eki": 2195,
    "##ının": 2196,
    "##ecek": 2197,
    "##sa": 2198,
    "##ba": 2199,
    "##ci": 2200,
    "ama": 2201,
    "çık": 2202,
    "ak": 2203,
    "##tır": 2204,
    "##eş": 2205,
    "kullan": 2206,
    "##ken": 2207,
    "çalı": 2208,
    "##isi": 2209,
    "##ili": 2210,
    "##ece": 2211,
    "##ör": 2212,
    "gibi": 2213,
    "##zer": 2214,
    "mü": 2215,
    "##san": 2216,
    "##ılı": 2217,
    "##aman": 2218,
    "##lerin": 2219,
    "##öyle": 2220,
    "tek": 2221,
    "yaş": 2222,
    "kal": 2223,
    "pro": 2224,
    "##ret": 2225,
    "kay": 2226,
    "yön": 2227,
    "gerek": 2228,
    "ek": 2229,
    "##yla": 2230,
    "bak": 2231,
    "kadar": 2232,
    "tar": 2233,
    "##laş": 2234,
    "yan": 2235,
    "say": 2236,
    "##eye": 2237,
    "dev": 2238,
    "##ru": 2239,
    "##eli": 2240,
    "##let": 2241,
    "sağ": 2242,
    "büy": 2243,
    "##ih": 2244,
    "##unda": 2245,
    "top": 2246,
    "gen": 2247,
    "##lü": 2248,
    "##os": 2249,
    "er": 2250,
    "ev": 2251,
    "sor": 2252,
    "##aya": 2253,
    "##diğ": 2254,
    "üzer": 2255,
    "##daki": 2256,
    "zaman": 2257,
    "el": 2258,
    "##ımız": 2259,
    "##ap": 2260,
    "##ers": 2261,
    "olma": 2262,
    "yaz": 2263,
    "doğ": 2264,
    "oy": 2265,
    "ola": 2266,
    "##met": 2267,
    "par": 2268,
    "##eh": 2269,
    "##’n": 2270,
    "##larını": 2271,
    "##lara": 2272,
    "##ilen": 2273,
    "##ist": 2274,
    "##lem": 2275,
    "dur": 2276,
    "düş": 2277,
    "##va": 2278,
    "bo": 2279,
    "gü": 2280,
    "hay": 2281,
    "bulun": 2282,
    "##dığ": 2283,
    "##ilm": 2284,
    "çalış": 2285,
    "san": 2286,
    "##gi": 2287,
    "##iyle": 2288,
    "sonra": 2289,
    "bun": 2290,
    "eğ": 2291,
    "kat": 2292,
    "##men": 2293,
    "##iyet": 2294,
    "##inden": 2295,
    "##eri": 2296,
    "öğ": 2297,
    "##ah": 2298,
    "##yi": 2299,
    "yapı": 2300,
    "den": 2301,
    "##öz": 2302,
    "hak": 2303,
    "biz": 2304,
    "##fa": 2305,
    "##dım": 2306,
    "##iç": 2307,
    "kap": 2308,
    "şey": 2309,
    "##eb": 2310,
    "tara": 2311,
    "yeni": 2312,
    "##ark": 2313,
    "##om": 2314,
    "201": 2315,
    "büyük": 2316,
    "siz": 2317,
    "##öl": 2318,
    "##cu": 2319,
    "hal": 2320,
    "##arı": 2321,
    "dön": 2322,
    "##asında": 2323,
    "özel": 2324,
    "##ınız": 2325,
    "##ren": 2326,
    "değil": 2327,
    "##maya": 2328,
    "##uy": 2329,
    "taraf": 2330,
    "##gu": 2331,
    "do": 2332,
    "##ab": 2333,
    "mil": 2334,
    "yak": 2335,
    "sen": 2336,
    "as": 2337,
    "##dığı": 2338,
    "es": 2339,
    "sah": 2340,
    "##ot": 2341,
    "yüz": 2342,
    "türkiye": 2343,
    "##ep": 2344,
    "uz": 2345,
    "##imi": 2346,
    "##deki": 2347,
    "##larda": 2348,
    "##ede": 2349,
    "##der": 2350,
    "karşı": 2351,
    "##ten": 2352,
    "##ans": 2353,
    "böl": 2354,
    "alan": 2355,
    "belir": 2356,
    "tak": 2357,
    "bur": 2358,
    "şek": 2359,
    "##if": 2360,
    "##lam": 2361,
    "gerç": 2362,
    "##i̇": 2363,
    "mu": 2364,
    "ise": 2365,
    "##sun": 2366,
    "dün": 2367,
    "sev": 2368,
    "##ic": 2369,
    "mer": 2370,
    "kend": 2371,
    "##dür": 2372,
    "##uşt": 2373,
    "ok": 2374,
    "##diği": 2375,
    "##ıyor": 2376,
    "##lerini": 2377,
    "##arak": 2378,
    "gir": 2379,
    "başk": 2380,
    "kiş": 2381,
    "##ter": 2382,
    "yol": 2383,
    "der": 2384,
    "ser": 2385,
    "düz": 2386,
    "gerçek": 2387,
    "##bul": 2388,
    "tem": 2389,
    "yük": 2390,
    "##lk": 2391,
    "##lat": 2392,
    "##ana": 2393,
    "har": 2394,
    "##cağ": 2395,
    "at": 2396,
    "yok": 2397,
    "açık": 2398,
    "söyle": 2399,
    "ki": 2400,
    "##re": 2401,
    "##00": 2402,
    "##kin": 2403,
    "veya": 2404,
    "##makta": 2405,
    "hem": 2406,
    "di": 2407,
    "bağ": 2408,
    "ilg": 2409,
    "has": 2410,
    "##lığı": 2411,
    "##larının": 2412,
    "##eleri": 2413,
    "iyi": 2414,
    "göre": 2415,
    "ada": 2416,
    "su": 2417,
    "##elik": 2418,
    "insan": 2419,
    "19": 2420,
    "##tr": 2421,
    "ot": 2422,
    "##sel": 2423,
    "##yan": 2424,
    "##ster": 2425,
    "##iv": 2426,
    "neden": 2427,
    "ilk": 2428,
    "##esinde": 2429,
    "haz": 2430,
    "ayr": 2431,
    "yet": 2432,
    "##ef": 2433,
    "ço": 2434,
    "önem": 2435,
    "tarih": 2436,
    "##ısı": 2437,
    "##mesi": 2438,
    "ad": 2439,
    "##ram": 2440,
    "##eceğ": 2441,
    "##mekte": 2442,
    "##dü": 2443,
    "##bir": 2444,
    "alt": 2445,
    "##siniz": 2446,
    "##ber": 2447,
    "##est": 2448,
    "##lere": 2449,
    "##erek": 2450,
    "seç": 2451,
    "tüm": 2452,
    "##yı": 2453,
    "##larına": 2454,
    "##iyorum": 2455,
    "##ley": 2456,
    "söz": 2457,
    "ağ": 2458,
    "iz": 2459,
    "##una": 2460,
    "tarafından": 2461,
    "##maz": 2462,
    "##üt": 2463,
    "##uyor": 2464,
    "durum": 2465,
    "ort": 2466,
    "##ştir": 2467,
    "tan": 2468,
    "edil": 2469,
    "##ünü": 2470,
    "ün": 2471,
    "göster": 2472,
    "olduğunu": 2473,
    "mo": 2474,
    "##dik": 2475,
    "ter": 2476,
    "fark": 2477,
    "##si": 2478,
    "sır": 2479,
    "yönet": 2480,
    "##mam": 2481,
    "göz": 2482,
    "##şa": 2483,
    "##iyat": 2484,
    "öğren": 2485,
    "##lığ": 2486,
    "önce": 2487,
    "art": 2488,
    "kaz": 2489,
    "##ça": 2490,
    "çek": 2491,
    "hiz": 2492,
    "av": 2493,
    "değiş": 2494,
    "olduğu": 2495,
    "kor": 2496,
    "ab": 2497,
    "##dık": 2498,
    "get": 2499,
    "öl": 2500,
    "##art": 2501,
    "hiç": 2502,
    "##dece": 2503,
    "şekil": 2504,
    "hizmet": 2505,
    "##ran": 2506,
    "i̇n": 2507,
    "##ada": 2508,
    "getir": 2509,
    "##eyi": 2510,
    "az": 2511,
    "##larında": 2512,
    "genel": 2513,
    "##lah": 2514,
    "##üs": 2515,
    "eğit": 2516,
    "yay": 2517,
    "ülk": 2518,
    "bin": 2519,
    "kurul": 2520,
    "##ven": 2521,
    "##leş": 2522,
    "mi": 2523,
    "hat": 2524,
    "##liği": 2525,
    "kan": 2526,
    "nin": 2527,
    "bilg": 2528,
    "##maktadır": 2529,
    "##leştir": 2530,
    "şu": 2531,
    "uygu": 2532,
    "##sı": 2533,
    "##uştur": 2534,
    "ayn": 2535,
    "bas": 2536,
    "sat": 2537,
    "alı": 2538,
    "##aret": 2539,
    "##ğer": 2540,
    "ih": 2541,
    "dış": 2542,
    "##ğu": 2543,
    "##asyon": 2544,
    "##unun": 2545,
    "##ştır": 2546,
    "##ileri": 2547,
    "##cuk": 2548,
    "##id": 2549,
    "hayat": 2550,
    "##mektedir": 2551,
    "tut": 2552,
    "##dur": 2553,
    "kim": 2554,
    "i̇st": 2555,
    "güz": 2556,
    "kö": 2557,
    "##daş": 2558,
    "un": 2559,
    "##han": 2560,
    "##up": 2561,
    "##bilirsiniz": 2562,
    "##tik": 2563,
    "ilgili": 2564,
    "etti": 2565,
    "##eğ": 2566,
    "##ımı": 2567,
    "değer": 2568,
    "##ağ": 2569,
    "mes": 2570,
    "faz": 2571,
    "devam": 2572,
    "##ad": 2573,
    "şekilde": 2574,
    "##ika": 2575,
    "bay": 2576,
    "sonu": 2577,
    "is": 2578,
    "hakk": 2579,
    "##raf": 2580,
    "zor": 2581,
    "çocuk": 2582,
    "duy": 2583,
    "iki": 2584,
    "düzen": 2585,
    "geliş": 2586,
    "güzel": 2587,
    "##por": 2588,
    "olur": 2589,
    "##ıp": 2590,
    "ör": 2591,
    "diğer": 2592,
    "önemli": 2593,
    "##liğ": 2594,
    "bek": 2595,
    "##acak": 2596,
    "te": 2597,
    "fazla": 2598,
    "kıs": 2599,
    "ın": 2600,
    "##lardan": 2601,
    "birlik": 2602,
    "##lerde": 2603,
    "##siz": 2604,
    "baz": 2605,
    "##mes": 2606,
    "##kez": 2607,
    "oyun": 2608,
    "çalışma": 2609,
    "sahip": 2610,
    "10": 2611,
    "yaptı": 2612,
    "ür": 2613,
    "##olo": 2614,
    "güven": 2615,
    "##ile": 2616,
    "##istem": 2617,
    "başla": 2618,
    "aynı": 2619,
    "tes": 2620,
    "içinde": 2621,
    "##tür": 2622,
    "sadece": 2623,
    "200": 2624,
    "konu": 2625,
    "##lacak": 2626,
    "merkez": 2627,
    "##gün": 2628,
    "em": 2629,
    "eğitim": 2630,
    "##lerinin": 2631,
    "hazır": 2632,
    "sistem": 2633,
    "##anbul": 2634,
    "ancak": 2635,
    "##tar": 2636,
    "##usu": 2637,
    "kam": 2638,
    "##enin": 2639,
    "##sek": 2640,
    "sit": 2641,
    "##çe": 2642,
    "##dim": 2643,
    "##sız": 2644,
    "tekn": 2645,
    "düşün": 2646,
    "##ye": 2647,
    "##rup": 2648,
    "yardım": 2649,
    "kes": 2650,
    "arasında": 2651,
    "am": 2652,
    "##ılan": 2653,
    "##lendir": 2654,
    "##ındaki": 2655,
    "arka": 2656,
    "diye": 2657,
    "mal": 2658,
    "##lerine": 2659,
    "bölg": 2660,
    "nas": 2661,
    "##kü": 2662,
    "##meye": 2663,
    "alın": 2664,
    "##ilik": 2665,
    "üst": 2666,
    "##tü": 2667,
    "##del": 2668,
    "ede": 2669,
    "yat": 2670,
    "##tör": 2671,
    "eş": 2672,
    "saat": 2673,
    "##na": 2674,
    "mah": 2675,
    "haf": 2676,
    "tel": 2677,
    "gelen": 2678,
    "kız": 2679,
    "##ünde": 2680,
    "ayrı": 2681,
    "dönem": 2682,
    "##larla": 2683,
    "benim": 2684,
    "##ayı": 2685,
    "bey": 2686,
    "büt": 2687,
    "i̇stanbul": 2688,
    "fa": 2689,
    "##oloj": 2690,
    "im": 2691,
    "olacak": 2692,
    "üret": 2693,
    "##dığını": 2694,
    "kit": 2695,
    "##ket": 2696,
    "yapılan": 2697,
    "##gun": 2698,
    "##mem": 2699,
    "görev": 2700,
    "böyle": 2701,
    "etk": 2702,
    "##ban": 2703,
    "yapıl": 2704,
    "##ig": 2705,
    "birlikte": 2706,
    "dik": 2707,
    "doğru": 2708,
    "sal": 2709,
    "##likle": 2710,
    "##gram": 2711,
    "##ıcı": 2712,
    "içer": 2713,
    "##bet": 2714,
    "dünya": 2715,
    "git": 2716,
    "boy": 2717,
    "ürün": 2718,
    "sek": 2719,
    "kendi": 2720,
    "gaz": 2721,
    "kom": 2722,
    "olmak": 2723,
    "i̇s": 2724,
    "tur": 2725,
    "mak": 2726,
    "yüksek": 2727,
    "##şk": 2728,
    "##eyen": 2729,
    "nasıl": 2730,
    "##üp": 2731,
    "karar": 2732,
    "mı": 2733,
    "kı": 2734,
    "##tiğ": 2735,
    "so": 2736,
    "mad": 2737,
    "##ne": 2738,
    "başkanı": 2739,
    "##mıştır": 2740,
    "orta": 2741,
    "farklı": 2742,
    "##iya": 2743,
    "##ehir": 2744,
    "##det": 2745,
    "eden": 2746,
    "kazan": 2747,
    "##cel": 2748,
    "kadın": 2749,
    "##iyon": 2750,
    "##dar": 2751,
    "bah": 2752,
    "tas": 2753,
    "##muş": 2754,
    "##masını": 2755,
    "fir": 2756,
    "nın": 2757,
    "fak": 2758,
    "bit": 2759,
    "bunun": 2760,
    "başka": 2761,
    "ban": 2762,
    "##larımız": 2763,
    "önc": 2764,
    "konuş": 2765,
    "beled": 2766,
    "##lanan": 2767,
    "##eme": 2768,
    "##lo": 2769,
    "##iyas": 2770,
    "##ilerin": 2771,
    "program": 2772,
    "##miştir": 2773,
    "başkan": 2774,
    "iliş": 2775,
    "pol": 2776,
    "res": 2777,
    "##sin": 2778,
    "haber": 2779,
    "##lak": 2780,
    "proj": 2781,
    "##laya": 2782,
    "mut": 2783,
    "bır": 2784,
    "##’da": 2785,
    "##ivers": 2786,
    "##dem": 2787,
    "##rak": 2788,
    "##’nin": 2789,
    "kü": 2790,
    "çev": 2791,
    "##layan": 2792,
    "çıkar": 2793,
    "bölüm": 2794,
    "##af": 2795,
    "##iversit": 2796,
    "##leme": 2797,
    "##lerinde": 2798,
    "can": 2799,
    "dav": 2800,
    "##ildi": 2801,
    "kr": 2802,
    "##abil": 2803,
    "görün": 2804,
    "##luk": 2805,
    "bırak": 2806,
    "##olu": 2807,
    "##esine": 2808,
    "bazı": 2809,
    "##masına": 2810,
    "bile": 2811,
    "sık": 2812,
    "film": 2813,
    "##yal": 2814,
    "sı": 2815,
    "bütün": 2816,
    "üniversit": 2817,
    "##sal": 2818,
    "##ri": 2819,
    "cum": 2820,
    "bunu": 2821,
    "mar": 2822,
    "üç": 2823,
    "i̇l": 2824,
    "gön": 2825,
    "##üne": 2826,
    "ku": 2827,
    "##ğü": 2828,
    "15": 2829,
    "şim": 2830,
    "##hur": 2831,
    "devlet": 2832,
    "##larından": 2833,
    "##iyoruz": 2834,
    "##malı": 2835,
    "##mez": 2836,
    "güç": 2837,
    "han": 2838,
    "##emiz": 2839,
    "##eket": 2840,
    "bana": 2841,
    "bugün": 2842,
    "din": 2843,
    "belirt": 2844,
    "biri": 2845,
    "tam": 2846,
    "##ira": 2847,
    "kaç": 2848,
    "met": 2849,
    "hep": 2850,
    "adam": 2851,
    "##kat": 2852,
    "##cü": 2853,
    "##diğini": 2854,
    "kır": 2855,
    "i̇ş": 2856,
    "uzun": 2857,
    "dan": 2858,
    "##indeki": 2859,
    "##mal": 2860,
    "po": 2861,
    "kas": 2862,
    "ik": 2863,
    "##be": 2864,
    "arkadaş": 2865,
    "yas": 2866,
    "##tal": 2867,
    "##üyor": 2868,
    "yür": 2869,
    "##’de": 2870,
    "##usunda": 2871,
    "fiyat": 2872,
    "bulunan": 2873,
    "##ing": 2874,
    "##anın": 2875,
    "sun": 2876,
    "müdür": 2877,
    "hakkında": 2878,
    "ho": 2879,
    "12": 2880,
    "eder": 2881,
    "ulu": 2882,
    "tamam": 2883,
    "##gil": 2884,
    "bar": 2885,
    "##ilmesi": 2886,
    "man": 2887,
    "ifa": 2888,
    "##esini": 2889,
    "sorun": 2890,
    "dest": 2891,
    "hasta": 2892,
    "##net": 2893,
    "yayın": 2894,
    "##isinde": 2895,
    "##mayı": 2896,
    "dedi": 2897,
    "##ulu": 2898,
    "şir": 2899,
    "öğret": 2900,
    "olması": 2901,
    "##ayan": 2902,
    "dem": 2903,
    "ro": 2904,
    "çün": 2905,
    "işlem": 2906,
    "dil": 2907,
    "uygun": 2908,
    "##’ın": 2909,
    "onun": 2910,
    "çünkü": 2911,
    "hız": 2912,
    "sağlık": 2913,
    "##yle": 2914,
    "sos": 2915,
    "cumhur": 2916,
    "dikkat": 2917,
    "destek": 2918,
    "##lük": 2919,
    "##lerden": 2920,
    "plan": 2921,
    "##gan": 2922,
    "rah": 2923,
    "hük": 2924,
    "iht": 2925,
    "##lantı": 2926,
    "abd": 2927,
    "##dum": 2928,
    "üzerine": 2929,
    "##ide": 2930,
    "##kı": 2931,
    "yem": 2932,
    "yüzde": 2933,
    "küç": 2934,
    "muh": 2935,
    "yani": 2936,
    "genç": 2937,
    "##sam": 2938,
    "görüş": 2939,
    "üy": 2940,
    "olduk": 2941,
    "##bar": 2942,
    "bakan": 2943,
    "##van": 2944,
    "##ebil": 2945,
    "geçir": 2946,
    "##lerle": 2947,
    "tah": 2948,
    "burada": 2949,
    "##onom": 2950,
    "olay": 2951,
    "dok": 2952,
    "oluştur": 2953,
    "kurum": 2954,
    "##ırım": 2955,
    "üzere": 2956,
    "##lıyor": 2957,
    "##gı": 2958,
    "hareket": 2959,
    "teş": 2960,
    "ayrıca": 2961,
    "onu": 2962,
    "##çı": 2963,
    "ber": 2964,
    "##las": 2965,
    "tasar": 2966,
    "##atı": 2967,
    "ye": 2968,
    "##duğu": 2969,
    "yılında": 2970,
    "##tık": 2971,
    "çöz": 2972,
    "##oğlu": 2973,
    "şirket": 2974,
    "##rar": 2975,
    "mev": 2976,
    "##kan": 2977,
    "taşı": 2978,
    "eğer": 2979,
    "##unuz": 2980,
    "diy": 2981,
    "ren": 2982,
    "yor": 2983,
    "##mi": 2984,
    "artık": 2985,
    "ihtiya": 2986,
    "üzerinde": 2987,
    "##gel": 2988,
    "##lerinden": 2989,
    "for": 2990,
    "##’in": 2991,
    "##bol": 2992,
    "##ime": 2993,
    "##ver": 2994,
    "sava": 2995,
    "anla": 2996,
    "kişi": 2997,
    "pay": 2998,
    "##ümüz": 2999,
    "iste": 3000,
    "müz": 3001,
    "##cek": 3002,
    "##bak": 3003,
    "kabul": 3004,
    "##ebilir": 3005,
    "##manın": 3006,
    "ulaş": 3007,
    "küçük": 3008,
    "anlam": 3009,
    "##lenen": 3010,
    "##elerin": 3011,
    "aşa": 3012,
    "##sta": 3013,
    "tr": 3014,
    "milyon": 3015,
    "11": 3016,
    "para": 3017,
    "##lum": 3018,
    "##uma": 3019,
    "##cağı": 3020,
    "oda": 3021,
    "##ch": 3022,
    "erk": 3023,
    "##istan": 3024,
    "##eti": 3025,
    "bor": 3026,
    "ch": 3027,
    "sak": 3028,
    "gerçekleştir": 3029,
    "ekonom": 3030,
    "##ıldı": 3031,
    "ah": 3032,
    "##ılır": 3033,
    "öğrenc": 3034,
    "avrup": 3035,
    "şimdi": 3036,
    "yaşa": 3037,
    "eski": 3038,
    "oluş": 3039,
    "##ızı": 3040,
    "ortaya": 3041,
    "ediyor": 3042,
    "kayn": 3043,
    "halk": 3044,
    "##esinin": 3045,
    "bilgi": 3046,
    "sonr": 3047,
    "##ladı": 3048,
    "ey": 3049,
    "nok": 3050,
    "araştır": 3051,
    "kül": 3052,
    "yine": 3053,
    "sosyal": 3054,
    "##sın": 3055,
    "yakın": 3056,
    "##inizi": 3057,
    "##ali": 3058,
    "sonuç": 3059,
    "mas": 3060,
    "hafta": 3061,
    "##kara": 3062,
    "seb": 3063,
    "kolay": 3064,
    "ard": 3065,
    "beni": 3066,
    "spor": 3067,
    "telef": 3068,
    "ifade": 3069,
    "##ılması": 3070,
    "##umuz": 3071,
    "uygulama": 3072,
    "##tu": 3073,
    "##bah": 3074,
    "hava": 3075,
    "##ıt": 3076,
    "hüküm": 3077,
    "koy": 3078,
    "##tım": 3079,
    "##za": 3080,
    "##işim": 3081,
    "per": 3082,
    "gönder": 3083,
    "telefon": 3084,
    "##ge": 3085,
    "tat": 3086,
    "his": 3087,
    "geçen": 3088,
    "##atan": 3089,
    "sıra": 3090,
    "tanı": 3091,
    "biraz": 3092,
    "##çi": 3093,
    "avrupa": 3094,
    "##lamak": 3095,
    "günü": 3096,
    "##eniz": 3097,
    "bizim": 3098,
    "##suz": 3099,
    "etmek": 3100,
    "##duğ": 3101,
    "##’nın": 3102,
    "##din": 3103,
    "30": 3104,
    "yen": 3105,
    "maç": 3106,
    "geri": 3107,
    "çeş": 3108,
    "##bu": 3109,
    "dolay": 3110,
    "18": 3111,
    "yönetim": 3112,
    "##abilir": 3113,
    "##maları": 3114,
    "hes": 3115,
    "yaklaş": 3116,
    "du": 3117,
    "başar": 3118,
    "hiçbir": 3119,
    "##ilir": 3120,
    "cez": 3121,
    "sar": 3122,
    "özellikle": 3123,
    "si": 3124,
    "##landır": 3125,
    "##lerimiz": 3126,
    "##acağ": 3127,
    "ses": 3128,
    "kısa": 3129,
    "herk": 3130,
    "madde": 3131,
    "takım": 3132,
    "vur": 3133,
    "konusunda": 3134,
    "##ort": 3135,
    "pek": 3136,
    "millet": 3137,
    "kontr": 3138,
    "kav": 3139,
    "dir": 3140,
    "##per": 3141,
    "##meler": 3142,
    "##isini": 3143,
    "söyledi": 3144,
    "##eceği": 3145,
    "ardından": 3146,
    "ankara": 3147,
    "##urt": 3148,
    "sanat": 3149,
    "li": 3150,
    "yerine": 3151,
    "kez": 3152,
    "rahat": 3153,
    "##doğ": 3154,
    "##madan": 3155,
    "gelir": 3156,
    "na": 3157,
    "##for": 3158,
    "##yorum": 3159,
    "taş": 3160,
    "paz": 3161,
    "mem": 3162,
    "kol": 3163,
    "mey": 3164,
    "kültür": 3165,
    "##oğraf": 3166,
    "diz": 3167,
    "okul": 3168,
    "ders": 3169,
    "##tif": 3170,
    "senin": 3171,
    "##laştır": 3172,
    "kil": 3173,
    "##gin": 3174,
    "araç": 3175,
    "deniz": 3176,
    "ala": 3177,
    "erkek": 3178,
    "olabilir": 3179,
    "##ştı": 3180,
    "##asına": 3181,
    "gazet": 3182,
    "st": 3183,
    "bilin": 3184,
    "lis": 3185,
    "süre": 3186,
    "birç": 3187,
    "##pr": 3188,
    "##siyon": 3189,
    "##ince": 3190,
    "kitap": 3191,
    "##vur": 3192,
    "##üşt": 3193,
    "mek": 3194,
    "fot": 3195,
    "##oz": 3196,
    "kontrol": 3197,
    "##cret": 3198,
    "siyas": 3199,
    "##og": 3200,
    "değerlendir": 3201,
    "örn": 3202,
    "##tem": 3203,
    "yapan": 3204,
    "##eden": 3205,
    "allah": 3206,
    "ziy": 3207,
    "fır": 3208,
    "##arası": 3209,
    "##edef": 3210,
    "ücret": 3211,
    "hemen": 3212,
    "##dın": 3213,
    "##tin": 3214,
    "##elim": 3215,
    "##eg": 3216,
    "sav": 3217,
    "size": 3218,
    "edilen": 3219,
    "seçim": 3220,
    "prof": 3221,
    "açıklama": 3222,
    "çağ": 3223,
    "yaptığı": 3224,
    "yaşam": 3225,
    "kaynak": 3226,
    "##isine": 3227,
    "dak": 3228,
    "toplum": 3229,
    "##vi": 3230,
    "cev": 3231,
    "birçok": 3232,
    "hedef": 3233,
    "ask": 3234,
    "herkes": 3235,
    "yanı": 3236,
    "kalit": 3237,
    "çeşit": 3238,
    "##tim": 3239,
    "ziyaret": 3240,
    "##ünün": 3241,
    "dair": 3242,
    "com": 3243,
    "##sanız": 3244,
    "sey": 3245,
    "th": 3246,
    "sektör": 3247,
    "##ınır": 3248,
    "##unca": 3249,
    "serv": 3250,
    "uç": 3251,
    "i̇z": 3252,
    "ner": 3253,
    "##kinci": 3254,
    "##umlu": 3255,
    "rek": 3256,
    "yarat": 3257,
    "yağ": 3258,
    "##ılmış": 3259,
    "##aj": 3260,
    "bağlı": 3261,
    "##ıda": 3262,
    "##sunuz": 3263,
    "##landı": 3264,
    "kah": 3265,
    "tic": 3266,
    "##mey": 3267,
    "başvur": 3268,
    "aş": 3269,
    "bildir": 3270,
    "##min": 3271,
    "köy": 3272,
    "vardır": 3273,
    "2018": 3274,
    "soru": 3275,
    "##ici": 3276,
    "dah": 3277,
    "14": 3278,
    "dr": 3279,
    "kapsam": 3280,
    "##su": 3281,
    "beş": 3282,
    "##uştu": 3283,
    "kut": 3284,
    "suç": 3285,
    "şeh": 3286,
    "teknoloj": 3287,
    "se": 3288,
    "söy": 3289,
    "##ılım": 3290,
    "16": 3291,
    "altında": 3292,
    "elek": 3293,
    "vatan": 3294,
    "25": 3295,
    "model": 3296,
    "##ilere": 3297,
    "##eceğini": 3298,
    "fakat": 3299,
    "part": 3300,
    "##ternet": 3301,
    "ulus": 3302,
    "##ve": 3303,
    "sur": 3304,
    "##fen": 3305,
    "gider": 3306,
    "dö": 3307,
    "##uluk": 3308,
    "uğ": 3309,
    "sana": 3310,
    "geliştir": 3311,
    "13": 3312,
    "isim": 3313,
    "iti": 3314,
    "##ekli": 3315,
    "id": 3316,
    "##kün": 3317,
    "##sik": 3318,
    "mis": 3319,
    "vak": 3320,
    "##tığ": 3321,
    "temiz": 3322,
    "##meden": 3323,
    "karş": 3324,
    "istem": 3325,
    "teknik": 3326,
    "değişik": 3327,
    "zar": 3328,
    "hav": 3329,
    "içerisinde": 3330,
    "men": 3331,
    "##oğun": 3332,
    "##asını": 3333,
    "sınır": 3334,
    "merkezi": 3335,
    "##şıyor": 3336,
    "müca": 3337,
    "savaş": 3338,
    "pat": 3339,
    "##rı": 3340,
    "ait": 3341,
    "tale": 3342,
    "##düğ": 3343,
    "olsun": 3344,
    "##cih": 3345,
    "##tur": 3346,
    "tekrar": 3347,
    "seni": 3348,
    "##iyi": 3349,
    "grup": 3350,
    "yapmak": 3351,
    "müşt": 3352,
    "kurulu": 3353,
    "af": 3354,
    "toplantı": 3355,
    "gereken": 3356,
    "çar": 3357,
    "oyn": 3358,
    "##cut": 3359,
    "##oy": 3360,
    "i̇ç": 3361,
    "satış": 3362,
    "##pan": 3363,
    "tercih": 3364,
    "yal": 3365,
    "boz": 3366,
    "tabi": 3367,
    "belediye": 3368,
    "##larıyla": 3369,
    "olup": 3370,
    "bilim": 3371,
    "uzak": 3372,
    "ann": 3373,
    "ağır": 3374,
    "##br": 3375,
    "indir": 3376,
    "mücadel": 3377,
    "##sil": 3378,
    "tav": 3379,
    "##isinin": 3380,
    "##sınız": 3381,
    "##tiği": 3382,
    "##üsü": 3383,
    "müm": 3384,
    "üniversitesi": 3385,
    "çalışan": 3386,
    "##ıntı": 3387,
    "ona": 3388,
    "##uyu": 3389,
    "##meyi": 3390,
    "17": 3391,
    "geldi": 3392,
    "##var": 3393,
    "##şte": 3394,
    "fotoğraf": 3395,
    "belediy": 3396,
    "oran": 3397,
    "yatırım": 3398,
    "sok": 3399,
    "öde": 3400,
    "i̇ngil": 3401,
    "elektr": 3402,
    "renk": 3403,
    "öyle": 3404,
    "##may": 3405,
    "##ga": 3406,
    "tl": 3407,
    "##ck": 3408,
    "sin": 3409,
    "bulu": 3410,
    "sez": 3411,
    "##dak": 3412,
    "engel": 3413,
    "##taş": 3414,
    "alman": 3415,
    "anlat": 3416,
    "inan": 3417,
    "oku": 3418,
    "temel": 3419,
    "##ayet": 3420,
    "kara": 3421,
    "##diğiniz": 3422,
    "##ilmiş": 3423,
    "##undan": 3424,
    "ac": 3425,
    "##diğim": 3426,
    "aşağı": 3427,
    "şehir": 3428,
    "os": 3429,
    "##masının": 3430,
    "adı": 3431,
    "fut": 3432,
    "gez": 3433,
    "of": 3434,
    "teda": 3435,
    "ele": 3436,
    "kork": 3437,
    "hastan": 3438,
    "##duk": 3439,
    "pa": 3440,
    "mik": 3441,
    "ortak": 3442,
    "değiştir": 3443,
    "sını": 3444,
    "etkin": 3445,
    "ail": 3446,
    "med": 3447,
    "kesin": 3448,
    "##erj": 3449,
    "##tığı": 3450,
    "##ekk": 3451,
    "um": 3452,
    "##’a": 3453,
    "yemek": 3454,
    "gece": 3455,
    "birbir": 3456,
    "sizin": 3457,
    "sahi": 3458,
    "zamanda": 3459,
    "kür": 3460,
    "fin": 3461,
    "##aliyet": 3462,
    "uluslar": 3463,
    "##rat": 3464,
    "##cağını": 3465,
    "pazar": 3466,
    "##isyon": 3467,
    "yeniden": 3468,
    "cin": 3469,
    "hey": 3470,
    "oluyor": 3471,
    "izle": 3472,
    "istiyor": 3473,
    "incel": 3474,
    "num": 3475,
    "kötü": 3476,
    "nedeniyle": 3477,
    "##gın": 3478,
    "##fer": 3479,
    "mec": 3480,
    "oto": 3481,
    "uzman": 3482,
    "yorum": 3483,
    "düny": 3484,
    "ilişk": 3485,
    "yaşan": 3486,
    "la": 3487,
    "##tor": 3488,
    "##lüğü": 3489,
    "örg": 3490,
    "##ünden": 3491,
    "amer": 3492,
    "asl": 3493,
    "tük": 3494,
    "mümkün": 3495,
    "re": 3496,
    "##can": 3497,
    "24": 3498,
    "##res": 3499,
    "çözüm": 3500,
    "##aber": 3501,
    "##deş": 3502,
    "belki": 3503,
    "##ışma": 3504,
    "100": 3505,
    "cam": 3506,
    "i̇lk": 3507,
    "ana": 3508,
    "00": 3509,
    "veren": 3510,
    "sınıf": 3511,
    "oldukça": 3512,
    "kaldır": 3513,
    "araştırma": 3514,
    "otur": 3515,
    "yeter": 3516,
    "##asının": 3517,
    "beraber": 3518,
    "saldır": 3519,
    "ip": 3520,
    "belg": 3521,
    "ru": 3522,
    "kamu": 3523,
    "yetk": 3524,
    "bize": 3525,
    "##hangi": 3526,
    "##ama": 3527,
    "mahk": 3528,
    "parti": 3529,
    "kuru": 3530,
    "faaliyet": 3531,
    "itibar": 3532,
    "enerj": 3533,
    "milli": 3534,
    "##lek": 3535,
    "öldür": 3536,
    "ölç": 3537,
    "##doğan": 3538,
    "herhangi": 3539,
    "199": 3540,
    "futbol": 3541,
    "##leyen": 3542,
    "organ": 3543,
    "koş": 3544,
    "yüksel": 3545,
    "beb": 3546,
    "anlaş": 3547,
    "boş": 3548,
    "güvenlik": 3549,
    "rap": 3550,
    "pu": 3551,
    "ayak": 3552,
    "##miyor": 3553,
    "geniş": 3554,
    "ham": 3555,
    "##ıla": 3556,
    "gül": 3557,
    "takip": 3558,
    "##imizi": 3559,
    "##dana": 3560,
    "başladı": 3561,
    "giriş": 3562,
    "buna": 3563,
    "çiz": 3564,
    "teh": 3565,
    "##ust": 3566,
    "##ecektir": 3567,
    "ila": 3568,
    "elde": 3569,
    "konusu": 3570,
    "bi": 3571,
    "##yo": 3572,
    "uluslararası": 3573,
    "##ari": 3574,
    "##imde": 3575,
    "##yanın": 3576,
    "mus": 3577,
    "##mesini": 3578,
    "##ğa": 3579,
    "##mel": 3580,
    "ilç": 3581,
    "##ize": 3582,
    "toplam": 3583,
    "bayan": 3584,
    "##alt": 3585,
    "yönelik": 3586,
    "fik": 3587,
    "##umu": 3588,
    "##imizin": 3589,
    "##do": 3590,
    "cumhuriyet": 3591,
    "##tiğini": 3592,
    "düşünü": 3593,
    "yöntem": 3594,
    "bab": 3595,
    "gec": 3596,
    "ali": 3597,
    "##lanması": 3598,
    "##şam": 3599,
    "özellik": 3600,
    "yapar": 3601,
    "ikinci": 3602,
    "net": 3603,
    "hatır": 3604,
    "mahal": 3605,
    "zat": 3606,
    "##ıza": 3607,
    "rağ": 3608,
    "ister": 3609,
    "demek": 3610,
    "mez": 3611,
    "aday": 3612,
    "##lül": 3613,
    "##elen": 3614,
    "saç": 3615,
    "##elere": 3616,
    "üzerinden": 3617,
    "ora": 3618,
    "##teş": 3619,
    "aras": 3620,
    "kuruluş": 3621,
    "şah": 3622,
    "görül": 3623,
    "des": 3624,
    "ap": 3625,
    "##lim": 3626,
    "polis": 3627,
    "özg": 3628,
    "##bo": 3629,
    "bes": 3630,
    "##üb": 3631,
    "may": 3632,
    "tarihi": 3633,
    "dol": 3634,
    "cih": 3635,
    "##bat": 3636,
    "##abilirsiniz": 3637,
    "yaklaşık": 3638,
    "##yen": 3639,
    "ga": 3640,
    "sına": 3641,
    "ceza": 3642,
    "dör": 3643,
    "rapor": 3644,
    "aslında": 3645,
    "##ısında": 3646,
    "olmayan": 3647,
    "meh": 3648,
    "##lardır": 3649,
    "giy": 3650,
    "yara": 3651,
    "##lüğ": 3652,
    "polit": 3653,
    "##elerde": 3654,
    "50": 3655,
    "ilişkin": 3656,
    "##laması": 3657,
    "kardeş": 3658,
    "rağmen": 3659,
    "çıkan": 3660,
    "##ilerini": 3661,
    "dolar": 3662,
    "rus": 3663,
    "##başk": 3664,
    "amaç": 3665,
    "##dül": 3666,
    "##yar": 3667,
    "sig": 3668,
    "##lanmış": 3669,
    "oğ": 3670,
    "gru": 3671,
    "ilet": 3672,
    "gerekir": 3673,
    "olsa": 3674,
    "tep": 3675,
    "anda": 3676,
    "kayıt": 3677,
    "hızlı": 3678,
    "almak": 3679,
    "##amp": 3680,
    "internet": 3681,
    "öner": 3682,
    "21": 3683,
    "##eği": 3684,
    "##taj": 3685,
    "##ğini": 3686,
    "iy": 3687,
    "##lis": 3688,
    "unut": 3689,
    "yaln": 3690,
    "yaban": 3691,
    "##bilecek": 3692,
    "örgüt": 3693,
    "##fet": 3694,
    "dakika": 3695,
    "erdoğan": 3696,
    "gerekli": 3697,
    "bakım": 3698,
    "##ent": 3699,
    "hesap": 3700,
    "paylaş": 3701,
    "##muştur": 3702,
    "kira": 3703,
    "sürdür": 3704,
    "##set": 3705,
    "silah": 3706,
    "veril": 3707,
    "fay": 3708,
    "##meli": 3709,
    "vatandaş": 3710,
    "dışında": 3711,
    "##leriyle": 3712,
    "vide": 3713,
    "çif": 3714,
    "ticaret": 3715,
    "evet": 3716,
    "gelecek": 3717,
    "##diğimiz": 3718,
    "öğretmen": 3719,
    "##aş": 3720,
    "fen": 3721,
    "çevr": 3722,
    "zaten": 3723,
    "amacı": 3724,
    "karış": 3725,
    "yurt": 3726,
    "yardımcı": 3727,
    "##tiv": 3728,
    "##ukuk": 3729,
    "iddi": 3730,
    "terör": 3731,
    "##mıyor": 3732,
    "##ekkür": 3733,
    "##ıyla": 3734,
    "sam": 3735,
    "şöyle": 3736,
    "##ilerine": 3737,
    "şark": 3738,
    "parça": 3739,
    "##mir": 3740,
    "yalnız": 3741,
    "##vet": 3742,
    "##ate": 3743,
    "##ınca": 3744,
    "gerçekten": 3745,
    "##cısı": 3746,
    "##unuyor": 3747,
    "ortam": 3748,
    "firma": 3749,
    "##muz": 3750,
    "boyunca": 3751,
    "ekip": 3752,
    "hukuk": 3753,
    "adım": 3754,
    "temsil": 3755,
    "ölüm": 3756,
    "##hale": 3757,
    "yaka": 3758,
    "dar": 3759,
    "##ant": 3760,
    "##ere": 3761,
    "##mı": 3762,
    "bal": 3763,
    "osman": 3764,
    "aşk": 3765,
    "yaptığ": 3766,
    "##kaç": 3767,
    "##eyim": 3768,
    "istiyorum": 3769,
    "malz": 3770,
    "başbak": 3771,
    "yazı": 3772,
    "cumhurbaşk": 3773,
    "nak": 3774,
    "nun": 3775,
    "don": 3776,
    "nokta": 3777,
    "web": 3778,
    "2017": 3779,
    "piyas": 3780,
    "bilgis": 3781,
    "zorunda": 3782,
    "##masında": 3783,
    "banka": 3784,
    "kurt": 3785,
    "oyuncu": 3786,
    "teşekkür": 3787,
    "gar": 3788,
    "aldı": 3789,
    "doğal": 3790,
    "sezon": 3791,
    "##eğin": 3792,
    "##ısından": 3793,
    "##elerini": 3794,
    "beyaz": 3795,
    "tab": 3796,
    "şart": 3797,
    "çocu": 3798,
    "##üğ": 3799,
    "##av": 3800,
    "gerçekleş": 3801,
    "hatta": 3802,
    "##mesine": 3803,
    "otel": 3804,
    "##sat": 3805,
    "çeşitli": 3806,
    "şekl": 3807,
    "det": 3808,
    "hik": 3809,
    "hayır": 3810,
    "sıcak": 3811,
    "yarar": 3812,
    "##imize": 3813,
    "ke": 3814,
    "adet": 3815,
    "derece": 3816,
    "yolu": 3817,
    "tu": 3818,
    "##izm": 3819,
    "değildir": 3820,
    "verdi": 3821,
    "##efer": 3822,
    "dolayı": 3823,
    "kalan": 3824,
    "devr": 3825,
    "yoğun": 3826,
    "##diler": 3827,
    "kalk": 3828,
    "edecek": 3829,
    "edin": 3830,
    "##lanır": 3831,
    "birkaç": 3832,
    "##meyen": 3833,
    "nit": 3834,
    "yüzden": 3835,
    "co": 3836,
    "bilgisay": 3837,
    "##cılık": 3838,
    "örnek": 3839,
    "zarar": 3840,
    "biliyor": 3841,
    "izin": 3842,
    "yanlı": 3843,
    "##lemek": 3844,
    "##yacak": 3845,
    "##izi": 3846,
    "hükümet": 3847,
    "no": 3848,
    "fayda": 3849,
    "cevap": 3850,
    "pers": 3851,
    "nor": 3852,
    "mağ": 3853,
    "##sak": 3854,
    "kaf": 3855,
    "yapıyor": 3856,
    "sürec": 3857,
    "##dığımız": 3858,
    "durumda": 3859,
    "##inize": 3860,
    "kullanıcı": 3861,
    "gerekiyor": 3862,
    "sp": 3863,
    "sınav": 3864,
    "ihtiyaç": 3865,
    "tart": 3866,
    "##mayan": 3867,
    "oper": 3868,
    "yapılacak": 3869,
    "22": 3870,
    "tarihinde": 3871,
    "geliyor": 3872,
    "##ina": 3873,
    "halinde": 3874,
    "mot": 3875,
    "isteyen": 3876,
    "giz": 3877,
    "bat": 3878,
    "sürekli": 3879,
    "cihaz": 3880,
    "benzer": 3881,
    "doktor": 3882,
    "##mişti": 3883,
    "tip": 3884,
    "üretim": 3885,
    "kons": 3886,
    "yo": 3887,
    "mevcut": 3888,
    "savun": 3889,
    "##meleri": 3890,
    "ekonomik": 3891,
    "##üc": 3892,
    "demir": 3893,
    "mehmet": 3894,
    "hoş": 3895,
    "hale": 3896,
    "vardı": 3897,
    "yabancı": 3898,
    "##dis": 3899,
    "nde": 3900,
    "cen": 3901,
    "sem": 3902,
    "biç": 3903,
    "sahibi": 3904,
    "##matik": 3905,
    "i̇nsan": 3906,
    "##inci": 3907,
    "sanay": 3908,
    "to": 3909,
    "yarış": 3910,
    "dönüş": 3911,
    "##vek": 3912,
    "##enek": 3913,
    "##liyor": 3914,
    "dost": 3915,
    "yanında": 3916,
    "##sen": 3917,
    "tasarım": 3918,
    "yetiş": 3919,
    "onlar": 3920,
    "##lif": 3921,
    "ruh": 3922,
    "hangi": 3923,
    "##dip": 3924,
    "sonunda": 3925,
    "be": 3926,
    "##mıştı": 3927,
    "kitab": 3928,
    "canlı": 3929,
    "cid": 3930,
    "beklen": 3931,
    "##menin": 3932,
    "##ırı": 3933,
    "kuz": 3934,
    "sistemi": 3935,
    "##’e": 3936,
    "çift": 3937,
    "asker": 3938,
    "ra": 3939,
    "##elerinin": 3940,
    "##pit": 3941,
    "mesaj": 3942,
    "ödül": 3943,
    "başarı": 3944,
    "##lım": 3945,
    "##ton": 3946,
    "##iğ": 3947,
    "hayvan": 3948,
    "dal": 3949,
    "davran": 3950,
    "kuş": 3951,
    "tüket": 3952,
    "verilen": 3953,
    "çoğ": 3954,
    "##tep": 3955,
    "##üy": 3956,
    "##ült": 3957,
    "##talya": 3958,
    "sol": 3959,
    "##’un": 3960,
    "##dığım": 3961,
    "yık": 3962,
    "str": 3963,
    "fil": 3964,
    "talep": 3965,
    "bank": 3966,
    "##ilerinin": 3967,
    "sayfa": 3968,
    "fon": 3969,
    "dünyanın": 3970,
    "##lâ": 3971,
    "##lilik": 3972,
    "the": 3973,
    "kapsamında": 3974,
    "##manız": 3975,
    "##mat": 3976,
    "şi": 3977,
    "##isk": 3978,
    "bilgisayar": 3979,
    "dahil": 3980,
    "vü": 3981,
    "##luluk": 3982,
    "23": 3983,
    "geçmiş": 3984,
    "dayan": 3985,
    "türlü": 3986,
    "dağı": 3987,
    "it": 3988,
    "fat": 3989,
    "sizi": 3990,
    "imza": 3991,
    "resim": 3992,
    "konuda": 3993,
    "dört": 3994,
    "br": 3995,
    "##larım": 3996,
    "tık": 3997,
    "diyor": 3998,
    "kre": 3999,
    "sabah": 4000,
    "##ov": 4001,
    "##dıkları": 4002,
    "kent": 4003,
    "aydın": 4004,
    "##müş": 4005,
    "##esinden": 4006,
    "##lanma": 4007,
    "şeyler": 4008,
    "yıldır": 4009,
    "##ýn": 4010,
    "akşam": 4011,
    "demok": 4012,
    "sayılı": 4013,
    "yazar": 4014,
    "##atür": 4015,
    "sayesinde": 4016,
    "sözleş": 4017,
    "basın": 4018,
    "oyna": 4019,
    "müzik": 4020,
    "kasım": 4021,
    "ederek": 4022,
    "person": 4023,
    "anad": 4024,
    "görüntü": 4025,
    "##laştı": 4026,
    "tra": 4027,
    "milyar": 4028,
    "soğ": 4029,
    "##ılma": 4030,
    "i̇zmir": 4031,
    "mutlu": 4032,
    "eylül": 4033,
    "kalı": 4034,
    "olmaz": 4035,
    "belli": 4036,
    "##ast": 4037,
    "çıktı": 4038,
    "tespit": 4039,
    "sebep": 4040,
    "i̇ngiliz": 4041,
    "stan": 4042,
    "yum": 4043,
    "##yum": 4044,
    "laz": 4045,
    "emek": 4046,
    "nis": 4047,
    "kaybet": 4048,
    "bakanı": 4049,
    "servis": 4050,
    "ettiği": 4051,
    "##lin": 4052,
    "konuştu": 4053,
    "bundan": 4054,
    "kab": 4055,
    "mart": 4056,
    "##asyonu": 4057,
    "şeyi": 4058,
    "kendini": 4059,
    "başarılı": 4060,
    "karak": 4061,
    "milletvek": 4062,
    "##şehir": 4063,
    "şamp": 4064,
    "güçlü": 4065,
    "##ele": 4066,
    "##ülen": 4067,
    "##dığınız": 4068,
    "2016": 4069,
    "##larınız": 4070,
    "##tay": 4071,
    "kilo": 4072,
    "işlet": 4073,
    "##rah": 4074,
    "##dız": 4075,
    "dos": 4076,
    "götür": 4077,
    "çer": 4078,
    "##üman": 4079,
    "##dek": 4080,
    "##layacak": 4081,
    "##ıldığı": 4082,
    "##ke": 4083,
    "sırasında": 4084,
    "bizi": 4085,
    "##iran": 4086,
    "40": 4087,
    "insanlar": 4088,
    "belediyesi": 4089,
    "yıllık": 4090,
    "olmalı": 4091,
    "##ân": 4092,
    "gol": 4093,
    "siv": 4094,
    "gid": 4095,
    "ülkemiz": 4096,
    "detay": 4097,
    "nda": 4098,
    "başbakan": 4099,
    "pan": 4100,
    "ilan": 4101,
    "rak": 4102,
    "temmuz": 4103,
    "##iliği": 4104,
    "and": 4105,
    "puan": 4106,
    "kir": 4107,
    "yuk": 4108,
    "ülke": 4109,
    "emin": 4110,
    "##üf": 4111,
    "ocak": 4112,
    "anadolu": 4113,
    "kişinin": 4114,
    "olabil": 4115,
    "açısından": 4116,
    "hastalık": 4117,
    "##lığını": 4118,
    "yanlış": 4119,
    "##’ye": 4120,
    "yılı": 4121,
    "list": 4122,
    "katılım": 4123,
    "##ela": 4124,
    "##mer": 4125,
    "alır": 4126,
    "zen": 4127,
    "dek": 4128,
    "müşter": 4129,
    "##şık": 4130,
    "lig": 4131,
    "tesis": 4132,
    "adına": 4133,
    "ça": 4134,
    "aralık": 4135,
    "bakanlığı": 4136,
    "##pa": 4137,
    "gök": 4138,
    "yıldız": 4139,
    "##osu": 4140,
    "##yas": 4141,
    "##eder": 4142,
    "artır": 4143,
    "000": 4144,
    "yoksa": 4145,
    "yerde": 4146,
    "dile": 4147,
    "##ışı": 4148,
    "pak": 4149,
    "bunlar": 4150,
    "##omo": 4151,
    "kanun": 4152,
    "##ılıyor": 4153,
    "yürüt": 4154,
    "nedenle": 4155,
    "##hal": 4156,
    "kapat": 4157,
    "##ıyorum": 4158,
    "özgür": 4159,
    "video": 4160,
    "sonucu": 4161,
    "##lamaya": 4162,
    "fran": 4163,
    "yaptık": 4164,
    "##hbet": 4165,
    "arada": 4166,
    "##düğü": 4167,
    "müh": 4168,
    "ekim": 4169,
    "##izyon": 4170,
    "fi": 4171,
    "ata": 4172,
    "doğr": 4173,
    "tama": 4174,
    "olacaktır": 4175,
    "##imin": 4176,
    "nef": 4177,
    "bilgiler": 4178,
    "##luğu": 4179,
    "yere": 4180,
    "başvuru": 4181,
    "##layarak": 4182,
    "birliği": 4183,
    "nerede": 4184,
    "mahalle": 4185,
    "##üncü": 4186,
    "kullanım": 4187,
    "kuv": 4188,
    "güneş": 4189,
    "mark": 4190,
    "eser": 4191,
    "direk": 4192,
    "düzenlenen": 4193,
    "kredi": 4194,
    "##medi": 4195,
    "enerji": 4196,
    "##ebilirsiniz": 4197,
    "resmi": 4198,
    "sohbet": 4199,
    "tamamen": 4200,
    "üz": 4201,
    "##alım": 4202,
    "##ğın": 4203,
    "sh": 4204,
    "##gen": 4205,
    "şampiyon": 4206,
    "kapı": 4207,
    "##esel": 4208,
    "şans": 4209,
    "##anıyor": 4210,
    "##gar": 4211,
    "not": 4212,
    "min": 4213,
    "yaptır": 4214,
    "##üst": 4215,
    "pr": 4216,
    "##emi": 4217,
    "müs": 4218,
    "##elerine": 4219,
    "ten": 4220,
    "vermek": 4221,
    "tec": 4222,
    "verir": 4223,
    "bulunduğu": 4224,
    "##edik": 4225,
    "##stafa": 4226,
    "##eyin": 4227,
    "baba": 4228,
    "##spor": 4229,
    "günlük": 4230,
    "açı": 4231,
    "##ladığı": 4232,
    "önceki": 4233,
    "elektrik": 4234,
    "le": 4235,
    "denet": 4236,
    "##of": 4237,
    "alıyor": 4238,
    "dep": 4239,
    "##eceğim": 4240,
    "##luğ": 4241,
    "alış": 4242,
    "akıl": 4243,
    "belirlen": 4244,
    "##fak": 4245,
    "mayıs": 4246,
    "##dük": 4247,
    "haziran": 4248,
    "onları": 4249,
    "müdürlüğü": 4250,
    "güney": 4251,
    "hen": 4252,
    "ünlü": 4253,
    "sab": 4254,
    "##od": 4255,
    "yeş": 4256,
    "mustafa": 4257,
    "##ni": 4258,
    "##evi": 4259,
    "verdiği": 4260,
    "geçer": 4261,
    "##dığında": 4262,
    "hâ": 4263,
    "##go": 4264,
    "orada": 4265,
    "nokt": 4266,
    "pas": 4267,
    "diş": 4268,
    "##ısıyla": 4269,
    "##üle": 4270,
    "siyasi": 4271,
    "##rik": 4272,
    "itibaren": 4273,
    "tanım": 4274,
    "##inc": 4275,
    "başına": 4276,
    "bağım": 4277,
    "bura": 4278,
    "key": 4279,
    "teklif": 4280,
    "salon": 4281,
    "kart": 4282,
    "seviy": 4283,
    "##emez": 4284,
    "altın": 4285,
    "##atif": 4286,
    "kullanılan": 4287,
    "motor": 4288,
    "arasındaki": 4289,
    "aile": 4290,
    "##bı": 4291,
    "28": 4292,
    "inşa": 4293,
    "mücadele": 4294,
    "hala": 4295,
    "şeklinde": 4296,
    "##fi": 4297,
    "##ilerek": 4298,
    "##iliğ": 4299,
    "yu": 4300,
    "daki": 4301,
    "adlı": 4302,
    "ateş": 4303,
    "##mamız": 4304,
    "##unan": 4305,
    "trans": 4306,
    "##ısını": 4307,
    "##mayacak": 4308,
    "işaret": 4309,
    "yapma": 4310,
    "##elerinde": 4311,
    "aldığı": 4312,
    "mobil": 4313,
    "pey": 4314,
    "bağlantı": 4315,
    "2015": 4316,
    "irak": 4317,
    "##lığın": 4318,
    "gür": 4319,
    "toprak": 4320,
    "##diş": 4321,
    "güncel": 4322,
    "normal": 4323,
    "tay": 4324,
    "##dikleri": 4325,
    "##lerce": 4326,
    "bebek": 4327,
    "##malıdır": 4328,
    "ciddi": 4329,
    "varsa": 4330,
    "satın": 4331,
    "pen": 4332,
    "go": 4333,
    "araya": 4334,
    "##liğini": 4335,
    "##mu": 4336,
    "tarif": 4337,
    "##lıkla": 4338,
    "##yız": 4339,
    "düzey": 4340,
    "düzenlen": 4341,
    "fr": 4342,
    "bayram": 4343,
    "alma": 4344,
    "merak": 4345,
    "pet": 4346,
    "kims": 4347,
    "##ücü": 4348,
    "şiir": 4349,
    "etkil": 4350,
    "##iyeti": 4351,
    "##esiyle": 4352,
    "malzem": 4353,
    "eki": 4354,
    "durumu": 4355,
    "makin": 4356,
    "meydana": 4357,
    "sitesi": 4358,
    "edilm": 4359,
    "i̇slam": 4360,
    "beri": 4361,
    "marka": 4362,
    "##’ya": 4363,
    "##dal": 4364,
    "alınan": 4365,
    "profes": 4366,
    "us": 4367,
    "kimse": 4368,
    "öncelik": 4369,
    "lüt": 4370,
    "çat": 4371,
    "koru": 4372,
    "##uru": 4373,
    "çal": 4374,
    "27": 4375,
    "anal": 4376,
    "26": 4377,
    "mahkem": 4378,
    "sel": 4379,
    "##siy": 4380,
    "##ünüz": 4381,
    "kanal": 4382,
    "hayal": 4383,
    "##’dan": 4384,
    "alb": 4385,
    "meslek": 4386,
    "anne": 4387,
    "çevir": 4388,
    "günümüz": 4389,
    "tör": 4390,
    "mon": 4391,
    "kuzey": 4392,
    "yukarı": 4393,
    "##nun": 4394,
    "amacıyla": 4395,
    "edildi": 4396,
    "hisse": 4397,
    "müdürü": 4398,
    "##mada": 4399,
    "olmadığını": 4400,
    "##ydı": 4401,
    "soy": 4402,
    "##ati": 4403,
    "##rafik": 4404,
    "rol": 4405,
    "val": 4406,
    "chp": 4407,
    "##diğinde": 4408,
    "day": 4409,
    "oluşan": 4410,
    "tehlik": 4411,
    "mekan": 4412,
    "karşılaş": 4413,
    "nisan": 4414,
    "proje": 4415,
    "##sine": 4416,
    "haline": 4417,
    "##atürk": 4418,
    "böylece": 4419,
    "ahmet": 4420,
    "##’den": 4421,
    "##one": 4422,
    "yana": 4423,
    "alacak": 4424,
    "vaz": 4425,
    "ark": 4426,
    "##lamaz": 4427,
    "aracı": 4428,
    "##altı": 4429,
    "##iydi": 4430,
    "teslim": 4431,
    "##eceğiniz": 4432,
    "##çev": 4433,
    "eğlen": 4434,
    "##lığa": 4435,
    "balık": 4436,
    "##neği": 4437,
    "düşük": 4438,
    "onların": 4439,
    "katkı": 4440,
    "kararı": 4441,
    "cep": 4442,
    "##isel": 4443,
    "cumhurbaşkanı": 4444,
    "sanayi": 4445,
    "ağa": 4446,
    "değişiklik": 4447,
    "acı": 4448,
    "kuvvet": 4449,
    "çan": 4450,
    "borç": 4451,
    "prob": 4452,
    "##ümü": 4453,
    "otomo": 4454,
    "lira": 4455,
    "sayı": 4456,
    "##manı": 4457,
    "198": 4458,
    "isten": 4459,
    "süreç": 4460,
    "##brıs": 4461,
    "medya": 4462,
    "çalışıyor": 4463,
    "##’nde": 4464,
    "##aray": 4465,
    "günde": 4466,
    "##ınızı": 4467,
    "yoktur": 4468,
    "yi": 4469,
    "ic": 4470,
    "##ia": 4471,
    "##olojik": 4472,
    "##ko": 4473,
    "atatürk": 4474,
    "##gisi": 4475,
    "gerektiğini": 4476,
    "boyut": 4477,
    "yasa": 4478,
    "lider": 4479,
    "koşul": 4480,
    "##lulu": 4481,
    "##to": 4482,
    "keş": 4483,
    "2014": 4484,
    "##düm": 4485,
    "##li̇": 4486,
    "personel": 4487,
    "ihtiyac": 4488,
    "şarkı": 4489,
    "vurgu": 4490,
    "sayısı": 4491,
    "test": 4492,
    "##’nun": 4493,
    "uğra": 4494,
    "olmuş": 4495,
    "##dıktan": 4496,
    "esas": 4497,
    "##iyim": 4498,
    "çin": 4499,
    "##ale": 4500,
    "##laka": 4501,
    "sene": 4502,
    "kıbrıs": 4503,
    "##dam": 4504,
    "##lanıyor": 4505,
    "insanların": 4506,
    "defa": 4507,
    "##amız": 4508,
    "iler": 4509,
    "çerçev": 4510,
    "yapacak": 4511,
    "sunu": 4512,
    "ordu": 4513,
    "görmek": 4514,
    "i̇şte": 4515,
    "##ras": 4516,
    "etme": 4517,
    "sonrası": 4518,
    "##üph": 4519,
    "##par": 4520,
    "süt": 4521,
    "ediyorum": 4522,
    "kişiler": 4523,
    "##ade": 4524,
    "##lıklı": 4525,
    "yaşayan": 4526,
    "##tiğimiz": 4527,
    "kok": 4528,
    "sefer": 4529,
    "##co": 4530,
    "işi": 4531,
    "bunların": 4532,
    "eg": 4533,
    "bula": 4534,
    "29": 4535,
    "##leti": 4536,
    "##50": 4537,
    "perfor": 4538,
    "etkinlik": 4539,
    "##etik": 4540,
    "problem": 4541,
    "yeşil": 4542,
    "sorum": 4543,
    "eksik": 4544,
    "tedav": 4545,
    "kullanıl": 4546,
    "olmas": 4547,
    "iddia": 4548,
    "müsl": 4549,
    "mük": 4550,
    "##üme": 4551,
    "beğ": 4552,
    "hap": 4553,
    "bahç": 4554,
    "##madı": 4555,
    "gay": 4556,
    "##meniz": 4557,
    "##teki": 4558,
    "programı": 4559,
    "çiç": 4560,
    "fet": 4561,
    "dönemde": 4562,
    "##tıyor": 4563,
    "fakült": 4564,
    "##lanacak": 4565,
    "tarım": 4566,
    "bulundu": 4567,
    "imk": 4568,
    "öğretim": 4569,
    "lazım": 4570,
    "uyar": 4571,
    "yeterli": 4572,
    "cil": 4573,
    "edilir": 4574,
    "kampan": 4575,
    "öğrenciler": 4576,
    "hed": 4577,
    "##oloji": 4578,
    "tedavi": 4579,
    "süp": 4580,
    "zengin": 4581,
    "dam": 4582,
    "içine": 4583,
    "uc": 4584,
    "altına": 4585,
    "şüph": 4586,
    "performan": 4587,
    "buraya": 4588,
    "##yım": 4589,
    "##ısına": 4590,
    "##lerdir": 4591,
    "ilaç": 4592,
    "##ucu": 4593,
    "hır": 4594,
    "yapabil": 4595,
    "fer": 4596,
    "dava": 4597,
    "birinci": 4598,
    "ıs": 4599,
    "##i̇n": 4600,
    "mıs": 4601,
    "nes": 4602,
    "ayar": 4603,
    "öğrenci": 4604,
    "##cağız": 4605,
    "##cer": 4606,
    "sayf": 4607,
    "lo": 4608,
    "##cağım": 4609,
    "sarı": 4610,
    "risk": 4611,
    "çarp": 4612,
    "numara": 4613,
    "başlayan": 4614,
    "birleş": 4615,
    "##rol": 4616,
    "##bur": 4617,
    "amerik": 4618,
    "memnun": 4619,
    "reklam": 4620,
    "almanya": 4621,
    "miktar": 4622,
    "meclis": 4623,
    "temsilc": 4624,
    "##onik": 4625,
    "komisyon": 4626,
    "##üştür": 4627,
    "üyesi": 4628,
    "fikir": 4629,
    "i̇yi": 4630,
    "halde": 4631,
    "doğu": 4632,
    "şid": 4633,
    "ayında": 4634,
    "ker": 4635,
    "kala": 4636,
    "tv": 4637,
    "asla": 4638,
    "sayın": 4639,
    "##veriş": 4640,
    "##say": 4641,
    "eve": 4642,
    "aka": 4643,
    "##memiş": 4644,
    "kural": 4645,
    "rusya": 4646,
    "bazen": 4647,
    "ileri": 4648,
    "onay": 4649,
    "sonuc": 4650,
    "kadro": 4651,
    "##üler": 4652,
    "idar": 4653,
    "jo": 4654,
    "##ite": 4655,
    "##son": 4656,
    "hikay": 4657,
    "türkçe": 4658,
    "31": 4659,
    "##gör": 4660,
    "ekran": 4661,
    "girişim": 4662,
    "##lasyon": 4663,
    "operasyon": 4664,
    "çocuğ": 4665,
    "önünde": 4666,
    "##lığına": 4667,
    "del": 4668,
    "##ansız": 4669,
    "##ımda": 4670,
    "düşünc": 4671,
    "danış": 4672,
    "##line": 4673,
    "##eci": 4674,
    "deste": 4675,
    "##uar": 4676,
    "##rac": 4677,
    "tarz": 4678,
    "psik": 4679,
    "stand": 4680,
    "olmaya": 4681,
    "eleştir": 4682,
    "amerika": 4683,
    "sorumlu": 4684,
    "sokak": 4685,
    "sevg": 4686,
    "mühen": 4687,
    "derin": 4688,
    "ton": 4689,
    "##dun": 4690,
    "sıkıntı": 4691,
    "saldırı": 4692,
    "lütfen": 4693,
    "##orta": 4694,
    "fener": 4695,
    "arz": 4696,
    "kayde": 4697,
    "##duğunu": 4698,
    "##inç": 4699,
    "ettik": 4700,
    "osmanlı": 4701,
    "sonrasında": 4702,
    "poz": 4703,
    "lim": 4704,
    "kamer": 4705,
    "çay": 4706,
    "##deniz": 4707,
    "lisans": 4708,
    "kaliteli": 4709,
    "edece": 4710,
    "adres": 4711,
    "belirten": 4712,
    "peki": 4713,
    "davet": 4714,
    "henüz": 4715,
    "ül": 4716,
    "altı": 4717,
    "birey": 4718,
    "anlay": 4719,
    "hizmeti": 4720,
    "kırm": 4721,
    "ücretsiz": 4722,
    "aktar": 4723,
    "döv": 4724,
    "##ınıza": 4725,
    "uçak": 4726,
    "içeri": 4727,
    "başında": 4728,
    "söylü": 4729,
    "##eceğiz": 4730,
    "ef": 4731,
    "efen": 4732,
    "##lari": 4733,
    "doğum": 4734,
    "olursa": 4735,
    "antalya": 4736,
    "nüf": 4737,
    "##lisi": 4738,
    "2013": 4739,
    "##işleri": 4740,
    "artış": 4741,
    "yeri": 4742,
    "##iliyor": 4743,
    "boğ": 4744,
    "aj": 4745,
    "tıp": 4746,
    "##geç": 4747,
    "ettiğ": 4748,
    "müslüman": 4749,
    "kendisine": 4750,
    "dışarı": 4751,
    "##cılar": 4752,
    "##med": 4753,
    "bitir": 4754,
    "dünyada": 4755,
    "fes": 4756,
    "ulusal": 4757,
    "ağust": 4758,
    "bahis": 4759,
    "##ımıza": 4760,
    "##inizin": 4761,
    "onlara": 4762,
    "yönetic": 4763,
    "kemal": 4764,
    "bulunmaktadır": 4765,
    "bölümü": 4766,
    "bence": 4767,
    "yaşanan": 4768,
    "sizlere": 4769,
    "fiz": 4770,
    "##imli": 4771,
    "etkili": 4772,
    "##taki": 4773,
    "##ilecek": 4774,
    "yı": 4775,
    "mim": 4776,
    "i̇m": 4777,
    "##ratik": 4778,
    "bol": 4779,
    "yapılması": 4780,
    "zam": 4781,
    "park": 4782,
    "huz": 4783,
    "##best": 4784,
    "eylem": 4785,
    "etik": 4786,
    "kurtul": 4787,
    "fırsat": 4788,
    "şubat": 4789,
    "60": 4790,
    "işe": 4791,
    "bulunuyor": 4792,
    "ant": 4793,
    "söyley": 4794,
    "sine": 4795,
    "pla": 4796,
    "kup": 4797,
    "aylık": 4798,
    "ayır": 4799,
    "rad": 4800,
    "sağlıklı": 4801,
    "##lardı": 4802,
    "##büs": 4803,
    "ağustos": 4804,
    "dağ": 4805,
    "##vaş": 4806,
    "hisset": 4807,
    "eur": 4808,
    "##egor": 4809,
    "##evizyon": 4810,
    "yandan": 4811,
    "ted": 4812,
    "##lenme": 4813,
    "kem": 4814,
    "durumunda": 4815,
    "bursa": 4816,
    "hol": 4817,
    "mutlaka": 4818,
    "##arım": 4819,
    "yunan": 4820,
    "kısm": 4821,
    "roman": 4822,
    "köp": 4823,
    "düğ": 4824,
    "kullanı": 4825,
    "değerli": 4826,
    "##ilendir": 4827,
    "2012": 4828,
    "etmiş": 4829,
    "benz": 4830,
    "dolu": 4831,
    "beğen": 4832,
    "##ırken": 4833,
    "yardımcısı": 4834,
    "##terek": 4835,
    "##etler": 4836,
    "başlan": 4837,
    "tartış": 4838,
    "eşya": 4839,
    "grubu": 4840,
    "barış": 4841,
    "oyunu": 4842,
    "tabii": 4843,
    "çalıştı": 4844,
    "sil": 4845,
    "##ger": 4846,
    "##niyet": 4847,
    "olmadığı": 4848,
    "dolayısıyla": 4849,
    "araba": 4850,
    "türkiye’nin": 4851,
    "i̇ki": 4852,
    "yansı": 4853,
    "komut": 4854,
    "büyükşehir": 4855,
    "yerel": 4856,
    "##sef": 4857,
    "esc": 4858,
    "anay": 4859,
    "milletvekili": 4860,
    "def": 4861,
    "tez": 4862,
    "sırada": 4863,
    "##hi": 4864,
    "##rail": 4865,
    "##istik": 4866,
    "hesab": 4867,
    "güm": 4868,
    "serbest": 4869,
    "yargı": 4870,
    "hizmetleri": 4871,
    "##anlı": 4872,
    "iletişim": 4873,
    "çö": 4874,
    "##gam": 4875,
    "far": 4876,
    "edilmesi": 4877,
    "zey": 4878,
    "##rin": 4879,
    "kurtar": 4880,
    "yapacağ": 4881,
    "##yonel": 4882,
    "görüyor": 4883,
    "mat": 4884,
    "##mm": 4885,
    "kıy": 4886,
    "##ura": 4887,
    "yönetimi": 4888,
    "gıda": 4889,
    "##ımızı": 4890,
    "tutuk": 4891,
    "parç": 4892,
    "i̇b": 4893,
    "500": 4894,
    "açıklamada": 4895,
    "üye": 4896,
    "##ital": 4897,
    "##yıl": 4898,
    "deki": 4899,
    "çocuklar": 4900,
    "rahatsız": 4901,
    "##bin": 4902,
    "##eyle": 4903,
    "neler": 4904,
    "dışı": 4905,
    "bon": 4906,
    "düşünüyor": 4907,
    "müda": 4908,
    "##tere": 4909,
    "arama": 4910,
    "##seniz": 4911,
    "##emin": 4912,
    "escort": 4913,
    "siy": 4914,
    "i̇k": 4915,
    "alışveriş": 4916,
    "bölge": 4917,
    "veriyor": 4918,
    "işte": 4919,
    "##zon": 4920,
    "##atör": 4921,
    "##lıklar": 4922,
    "yerleş": 4923,
    "##ısının": 4924,
    "bed": 4925,
    "yavaş": 4926,
    "##ult": 4927,
    "batı": 4928,
    "##asa": 4929,
    "##cık": 4930,
    "politika": 4931,
    "kendine": 4932,
    "alanı": 4933,
    "##meni": 4934,
    "##kenin": 4935,
    "yetkil": 4936,
    "kelim": 4937,
    "##üştü": 4938,
    "##ku": 4939,
    "başta": 4940,
    "##imizde": 4941,
    "çevre": 4942,
    "##larca": 4943,
    "##ullah": 4944,
    "##bay": 4945,
    "firmaları": 4946,
    "muha": 4947,
    "##ene": 4948,
    "turizm": 4949,
    "çoğu": 4950,
    "moder": 4951,
    "suriye": 4952,
    "beşik": 4953,
    "tatil": 4954,
    "tane": 4955,
    "kategor": 4956,
    "##larınızı": 4957,
    "##asıyla": 4958,
    "##gaz": 4959,
    "##sini": 4960,
    "profesyonel": 4961,
    "##bahçe": 4962,
    "üçüncü": 4963,
    "enf": 4964,
    "deneyim": 4965,
    "sanırım": 4966,
    "erken": 4967,
    "car": 4968,
    "siyaset": 4969,
    "koca": 4970,
    "duygu": 4971,
    "ürünleri": 4972,
    "kış": 4973,
    "bunları": 4974,
    "kaydet": 4975,
    "##’i": 4976,
    "##ulan": 4977,
    "süper": 4978,
    "##eliğ": 4979,
    "ederim": 4980,
    "otomobil": 4981,
    "aray": 4982,
    "esk": 4983,
    "##ova": 4984,
    "yapıla": 4985,
    "hüc": 4986,
    "mur": 4987,
    "alanında": 4988,
    "konuşma": 4989,
    "##str": 4990,
    "pop": 4991,
    "teb": 4992,
    "teknoloji": 4993,
    "ces": 4994,
    "seçenek": 4995,
    "ez": 4996,
    "sayıda": 4997,
    "doldur": 4998,
    "vergi": 4999,
    "sap": 5000,
    "naz": 5001,
    "birisi": 5002,
    "meş": 5003,
    "tahmin": 5004,
    "##elerden": 5005,
    "çiçek": 5006,
    "piş": 5007,
    "tor": 5008,
    "yazılım": 5009,
    "televizyon": 5010,
    "standart": 5011,
    "yazılı": 5012,
    "örneğin": 5013,
    "yada": 5014,
    "askeri": 5015,
    "çalışmaları": 5016,
    "##mayın": 5017,
    "belirtti": 5018,
    "kaldı": 5019,
    "##ıştır": 5020,
    "sonraki": 5021,
    "bağımsız": 5022,
    "eğitimi": 5023,
    "##eksiyon": 5024,
    "yayım": 5025,
    "ni": 5026,
    "bilir": 5027,
    "yaşında": 5028,
    "me": 5029,
    "taz": 5030,
    "##âr": 5031,
    "##dit": 5032,
    "akadem": 5033,
    "##miyorum": 5034,
    "yapılır": 5035,
    "mühendis": 5036,
    "finans": 5037,
    "##ılmaz": 5038,
    "##ulması": 5039,
    "##enler": 5040,
    "##umsuz": 5041,
    "##ilmiştir": 5042,
    "kel": 5043,
    "##tiler": 5044,
    "sağlamak": 5045,
    "plat": 5046,
    "konut": 5047,
    "yapmış": 5048,
    "##biliyor": 5049,
    "gazi": 5050,
    "ref": 5051,
    "duvar": 5052,
    "harika": 5053,
    "olun": 5054,
    "sim": 5055,
    "politik": 5056,
    "heyec": 5057,
    "sip": 5058,
    "35": 5059,
    "##nek": 5060,
    "öden": 5061,
    "##dr": 5062,
    "şiddet": 5063,
    "##masından": 5064,
    "faiz": 5065,
    "##latas": 5066,
    "madd": 5067,
    "sert": 5068,
    "mor": 5069,
    "başlat": 5070,
    "modern": 5071,
    "nakl": 5072,
    "samsun": 5073,
    "##sem": 5074,
    "kişisel": 5075,
    "ödeme": 5076,
    "karşısında": 5077,
    "beşiktaş": 5078,
    "kırmızı": 5079,
    "op": 5080,
    "bankası": 5081,
    "##20": 5082,
    "##lıkları": 5083,
    "##imleri": 5084,
    "arac": 5085,
    "fizik": 5086,
    "türkiye’de": 5087,
    "##latasaray": 5088,
    "##siye": 5089,
    "##yse": 5090,
    "atı": 5091,
    "##har": 5092,
    "yarı": 5093,
    "şik": 5094,
    "i̇srail": 5095,
    "belirterek": 5096,
    "ilgi": 5097,
    "siyah": 5098,
    "##lığında": 5099,
    "kulüb": 5100,
    "huzur": 5101,
    "##amet": 5102,
    "galatasaray": 5103,
    "kesinlikle": 5104,
    "##artesi": 5105,
    "ce": 5106,
    "##ess": 5107,
    "tuz": 5108,
    "##gr": 5109,
    "##dıklarını": 5110,
    "hafif": 5111,
    "##alar": 5112,
    "çap": 5113,
    "arası": 5114,
    "i̇ran": 5115,
    "kana": 5116,
    "kalp": 5117,
    "##ımızda": 5118,
    "ülkenin": 5119,
    "şehit": 5120,
    "##dikten": 5121,
    "##leyi": 5122,
    "evde": 5123,
    "tatlı": 5124,
    "##edim": 5125,
    "ir": 5126,
    "##sim": 5127,
    "derneği": 5128,
    "fiyatları": 5129,
    "fakültesi": 5130,
    "##ä±": 5131,
    "kum": 5132,
    "güc": 5133,
    "yerleştir": 5134,
    "##lamış": 5135,
    "aya": 5136,
    "##şey": 5137,
    "##tt": 5138,
    "##larımızın": 5139,
    "##tern": 5140,
    "baskı": 5141,
    "red": 5142,
    "##acağı": 5143,
    "form": 5144,
    "alanda": 5145,
    "gösteren": 5146,
    "gem": 5147,
    "paket": 5148,
    "zev": 5149,
    "şiş": 5150,
    "sigorta": 5151,
    "197": 5152,
    "##muyor": 5153,
    "##’nda": 5154,
    "yanıt": 5155,
    "gördüğ": 5156,
    "taşıma": 5157,
    "müşteri": 5158,
    "yiy": 5159,
    "vücu": 5160,
    "sağlar": 5161,
    "strate": 5162,
    "##onya": 5163,
    "emniyet": 5164,
    "##lenmesi": 5165,
    "genellikle": 5166,
    "##izasyon": 5167,
    "söylüyor": 5168,
    "kendisi": 5169,
    "##asından": 5170,
    "new": 5171,
    "katıl": 5172,
    "sul": 5173,
    "karakter": 5174,
    "alına": 5175,
    "##anlar": 5176,
    "##laşı": 5177,
    "dis": 5178,
    "##edeki": 5179,
    "fenerbahçe": 5180,
    "kılı": 5181,
    "stratej": 5182,
    "yerinde": 5183,
    "bö": 5184,
    "##ğını": 5185,
    "sivil": 5186,
    "konum": 5187,
    "##ımızın": 5188,
    "saha": 5189,
    "##larımızı": 5190,
    "prot": 5191,
    "##lediği": 5192,
    "basit": 5193,
    "##layıp": 5194,
    "tecr": 5195,
    "olduğuna": 5196,
    "yaparak": 5197,
    "##tarı": 5198,
    "##ze": 5199,
    "uygulan": 5200,
    "nedir": 5201,
    "bilgileri": 5202,
    "kürt": 5203,
    "akp": 5204,
    "amel": 5205,
    "depr": 5206,
    "orman": 5207,
    "takdir": 5208,
    "hayatını": 5209,
    "tok": 5210,
    "##racat": 5211,
    "şeker": 5212,
    "peş": 5213,
    "beden": 5214,
    "dosya": 5215,
    "ec": 5216,
    "olumsuz": 5217,
    "olmuştur": 5218,
    "asıl": 5219,
    "odası": 5220,
    "ettir": 5221,
    "por": 5222,
    "##türk": 5223,
    "##yet": 5224,
    "##rek": 5225,
    "kop": 5226,
    "giden": 5227,
    "toplu": 5228,
    "yah": 5229,
    "bür": 5230,
    "tanrı": 5231,
    "##ülü": 5232,
    "alarak": 5233,
    "ikti": 5234,
    "##undaki": 5235,
    "##sas": 5236,
    "gönül": 5237,
    "##emek": 5238,
    "döneminde": 5239,
    "düşür": 5240,
    "##rika": 5241,
    "kans": 5242,
    "##ündeki": 5243,
    "##esiz": 5244,
    "yılın": 5245,
    "çıkış": 5246,
    "dök": 5247,
    "yapmaya": 5248,
    "işbir": 5249,
    "ale": 5250,
    "öne": 5251,
    "trab": 5252,
    "edeb": 5253,
    "##baş": 5254,
    "45": 5255,
    "gelin": 5256,
    "kapalı": 5257,
    "sona": 5258,
    "fab": 5259,
    "öncelikle": 5260,
    "musun": 5261,
    "2006": 5262,
    "yolc": 5263,
    "bec": 5264,
    "##’ı": 5265,
    "reh": 5266,
    "ge": 5267,
    "##ınızda": 5268,
    "gizli": 5269,
    "tutar": 5270,
    "sağlayan": 5271,
    "yapım": 5272,
    "2011": 5273,
    "peygam": 5274,
    "i̇h": 5275,
    "##laşma": 5276,
    "projesi": 5277,
    "kral": 5278,
    "çelik": 5279,
    "önüne": 5280,
    "almış": 5281,
    "##abet": 5282,
    "korun": 5283,
    "##sinin": 5284,
    "##lav": 5285,
    "##öğ": 5286,
    "kanı": 5287,
    "bet": 5288,
    "##imler": 5289,
    "##’te": 5290,
    "##ps": 5291,
    "##nam": 5292,
    "davranış": 5293,
    "“b": 5294,
    "##iri": 5295,
    "##liğin": 5296,
    "işç": 5297,
    "##lendi": 5298,
    "kavram": 5299,
    "hakkı": 5300,
    "##maktan": 5301,
    "adr": 5302,
    "##liğe": 5303,
    "hepsi": 5304,
    "##mür": 5305,
    "cinsel": 5306,
    "##liğinde": 5307,
    "##emey": 5308,
    "namaz": 5309,
    "i̇ngiltere": 5310,
    "lez": 5311,
    "##amı": 5312,
    "80": 5313,
    "##lal": 5314,
    "hayata": 5315,
    "göç": 5316,
    "zorun": 5317,
    "feder": 5318,
    "##inizde": 5319,
    "cad": 5320,
    "##i̇r": 5321,
    "##anet": 5322,
    "90": 5323,
    "fransa": 5324,
    "vazgeç": 5325,
    "##başı": 5326,
    "alıp": 5327,
    "sipar": 5328,
    "##diklerini": 5329,
    "yalan": 5330,
    "##sk": 5331,
    "online": 5332,
    "bende": 5333,
    "yarın": 5334,
    "##tepe": 5335,
    "açılı": 5336,
    "sahn": 5337,
    "##dat": 5338,
    "##biliriz": 5339,
    "hüs": 5340,
    "kendisini": 5341,
    "mill": 5342,
    "##raman": 5343,
    "ucuz": 5344,
    "koruma": 5345,
    "ihti": 5346,
    "##elerinden": 5347,
    "öy": 5348,
    "duyur": 5349,
    "lin": 5350,
    "yalnızca": 5351,
    "arab": 5352,
    "gr": 5353,
    "kullanarak": 5354,
    "yılda": 5355,
    "buluş": 5356,
    "şer": 5357,
    "gide": 5358,
    "sorunu": 5359,
    "##elt": 5360,
    "yetiştir": 5361,
    "##arken": 5362,
    "##kk": 5363,
    "##ledi": 5364,
    "trabzon": 5365,
    "yıllarda": 5366,
    "aşağıdaki": 5367,
    "##layın": 5368,
    "##he": 5369,
    "arttır": 5370,
    "etmeye": 5371,
    "bom": 5372,
    "başkanlığı": 5373,
    "05": 5374,
    "yaşındaki": 5375,
    "##emmel": 5376,
    "##malar": 5377,
    "gören": 5378,
    "peygamber": 5379,
    "olumlu": 5380,
    "##zet": 5381,
    "içi": 5382,
    "##tey": 5383,
    "tiyat": 5384,
    "yılmaz": 5385,
    "taşın": 5386,
    "eşit": 5387,
    "##lerim": 5388,
    "festiv": 5389,
    "performans": 5390,
    "adalet": 5391,
    "saf": 5392,
    "arkada": 5393,
    "##elerle": 5394,
    "atan": 5395,
    "i̇ngilizce": 5396,
    "saygı": 5397,
    "köş": 5398,
    "şen": 5399,
    "biliyorum": 5400,
    "soğuk": 5401,
    "tören": 5402,
    "katı": 5403,
    "km": 5404,
    "kıl": 5405,
    "etraf": 5406,
    "transfer": 5407,
    "##bilmek": 5408,
    "gerekmektedir": 5409,
    "aşırı": 5410,
    "kale": 5411,
    "ortalama": 5412,
    "##uç": 5413,
    "70": 5414,
    "herkesin": 5415,
    "nur": 5416,
    "platfor": 5417,
    "ışık": 5418,
    "sonucunda": 5419,
    "##ly": 5420,
    "##’ta": 5421,
    "##haba": 5422,
    "##yip": 5423,
    "takımı": 5424,
    "mod": 5425,
    "##ons": 5426,
    "geçiş": 5427,
    "kazandır": 5428,
    "yüzyıl": 5429,
    "blo": 5430,
    "kli": 5431,
    "edebiyat": 5432,
    "##lığının": 5433,
    "mükemmel": 5434,
    "edip": 5435,
    "üniversite": 5436,
    "kağı": 5437,
    "port": 5438,
    "##her": 5439,
    "boya": 5440,
    "##ildiği": 5441,
    "geçtiğimiz": 5442,
    "kahraman": 5443,
    "insanın": 5444,
    "kadınlar": 5445,
    "##irken": 5446,
    "##bis": 5447,
    "##ebilecek": 5448,
    "çalışmalar": 5449,
    "##mesinin": 5450,
    "bina": 5451,
    "tavsiye": 5452,
    "dakik": 5453,
    "avuk": 5454,
    "oranı": 5455,
    "sik": 5456,
    "hac": 5457,
    "##ekim": 5458,
    "sipariş": 5459,
    "hanım": 5460,
    "##car": 5461,
    "misin": 5462,
    "tiyatro": 5463,
    "başlar": 5464,
    "göl": 5465,
    "##no": 5466,
    "zira": 5467,
    "yola": 5468,
    "yasak": 5469,
    "##sizlik": 5470,
    "çor": 5471,
    "kaçır": 5472,
    "##aza": 5473,
    "gündem": 5474,
    "hata": 5475,
    "hi": 5476,
    "kahv": 5477,
    "azal": 5478,
    "##ersin": 5479,
    "klas": 5480,
    "##yer": 5481,
    "savunma": 5482,
    "merhaba": 5483,
    "soruştur": 5484,
    "##larındaki": 5485,
    "##lata": 5486,
    "36": 5487,
    "##ww": 5488,
    "##ğan": 5489,
    "grub": 5490,
    "##mit": 5491,
    "sanki": 5492,
    "olmasına": 5493,
    "##tığını": 5494,
    "##beri": 5495,
    "ediyoruz": 5496,
    "tren": 5497,
    "yapıldı": 5498,
    "isimli": 5499,
    "##diğin": 5500,
    "futbolcu": 5501,
    "##iyiz": 5502,
    "sitemiz": 5503,
    "doğan": 5504,
    "arap": 5505,
    "öncesi": 5506,
    "cer": 5507,
    "edilmiş": 5508,
    "##hane": 5509,
    "şa": 5510,
    "trafik": 5511,
    "gelenek": 5512,
    "01": 5513,
    "##lanmıştır": 5514,
    "günlerde": 5515,
    "yatak": 5516,
    "vit": 5517,
    "demokras": 5518,
    "kamp": 5519,
    "partisi": 5520,
    "##cam": 5521,
    "tanış": 5522,
    "##emiş": 5523,
    "nüfus": 5524,
    "memur": 5525,
    "##anan": 5526,
    "##ılmıştır": 5527,
    "##elidir": 5528,
    "tır": 5529,
    "aks": 5530,
    "kriz": 5531,
    "elektronik": 5532,
    "ölçü": 5533,
    "kişilik": 5534,
    "##ahat": 5535,
    "196": 5536,
    "##ho": 5537,
    "##lenmiş": 5538,
    "yararlan": 5539,
    "servisi": 5540,
    "##ii": 5541,
    "##antaj": 5542,
    "##lerinizi": 5543,
    "çıkıyor": 5544,
    "sultan": 5545,
    "##ağı": 5546,
    "##ıma": 5547,
    "##cusu": 5548,
    "##ner": 5549,
    "mic": 5550,
    "##latı": 5551,
    "i̇lçe": 5552,
    "belirtilen": 5553,
    "elbet": 5554,
    "##liğine": 5555,
    "fel": 5556,
    "önümüz": 5557,
    "##ham": 5558,
    "konus": 5559,
    "##book": 5560,
    "giren": 5561,
    "##anlık": 5562,
    "sürede": 5563,
    "büyü": 5564,
    "if": 5565,
    "##cilik": 5566,
    "keyif": 5567,
    "##ogle": 5568,
    "##iği": 5569,
    "cem": 5570,
    "meydan": 5571,
    "anlamda": 5572,
    "yaygın": 5573,
    "akıllı": 5574,
    "gücü": 5575,
    "düşünüyorum": 5576,
    "hd": 5577,
    "diren": 5578,
    "##ilebilir": 5579,
    "kapas": 5580,
    "##mur": 5581,
    "##nu": 5582,
    "##ros": 5583,
    "düzenlem": 5584,
    "şar": 5585,
    "öngör": 5586,
    "amerikan": 5587,
    "32": 5588,
    "##hp": 5589,
    "civ": 5590,
    "bahse": 5591,
    "biçimde": 5592,
    "mezun": 5593,
    "##ındır": 5594,
    "www": 5595,
    "mel": 5596,
    "##ayıf": 5597,
    "süresi": 5598,
    "edi": 5599,
    "yaşlı": 5600,
    "##yap": 5601,
    "ayı": 5602,
    "hus": 5603,
    "bilinen": 5604,
    "rez": 5605,
    "kayb": 5606,
    "durdur": 5607,
    "karıştır": 5608,
    "buy": 5609,
    "sü": 5610,
    "geçti": 5611,
    "olmadan": 5612,
    "zevk": 5613,
    "ameliyat": 5614,
    "##liler": 5615,
    "##isinden": 5616,
    "##iyer": 5617,
    "##urken": 5618,
    "endiş": 5619,
    "##desi": 5620,
    "verecek": 5621,
    "zayıf": 5622,
    "birden": 5623,
    "nedeni": 5624,
    "katıldı": 5625,
    "google": 5626,
    "odak": 5627,
    "site": 5628,
    "ima": 5629,
    "va": 5630,
    "mahallesi": 5631,
    "##uldu": 5632,
    "düşman": 5633,
    "##tis": 5634,
    "şub": 5635,
    "mimar": 5636,
    "dizi": 5637,
    "uygula": 5638,
    "##dy": 5639,
    "kızı": 5640,
    "##üstü": 5641,
    "olacağını": 5642,
    "birini": 5643,
    "##ciler": 5644,
    "otobüs": 5645,
    "##ştık": 5646,
    "##âh": 5647,
    "ürünler": 5648,
    "lik": 5649,
    "##sinde": 5650,
    "doğrudan": 5651,
    "istediğiniz": 5652,
    "09": 5653,
    "##yası": 5654,
    "kus": 5655,
    "birim": 5656,
    "con": 5657,
    "uyan": 5658,
    "rest": 5659,
    "neredeyse": 5660,
    "güvenli": 5661,
    "suyu": 5662,
    "edeceğ": 5663,
    "##’daki": 5664,
    "sebeb": 5665,
    "filmi": 5666,
    "##kar": 5667,
    "yav": 5668,
    "gelmiş": 5669,
    "harca": 5670,
    "##esindeki": 5671,
    "##gal": 5672,
    "kitabı": 5673,
    "2010": 5674,
    "ide": 5675,
    "ism": 5676,
    "sahiptir": 5677,
    "açıkladı": 5678,
    "##iyordu": 5679,
    "dahi": 5680,
    "##isiyle": 5681,
    "aktif": 5682,
    "gerektir": 5683,
    "çab": 5684,
    "##irler": 5685,
    "ondan": 5686,
    "etmektedir": 5687,
    "fransız": 5688,
    "##landığı": 5689,
    "##cil": 5690,
    "##muştu": 5691,
    "vücut": 5692,
    "umut": 5693,
    "##ry": 5694,
    "##dağ": 5695,
    "##alim": 5696,
    "yüzünden": 5697,
    "##mamış": 5698,
    "ortadan": 5699,
    "murat": 5700,
    "alk": 5701,
    "02": 5702,
    "önlem": 5703,
    "tablo": 5704,
    "olmasını": 5705,
    "üzerindeki": 5706,
    "çoğun": 5707,
    "avantaj": 5708,
    "##lardaki": 5709,
    "##orm": 5710,
    "kök": 5711,
    "gur": 5712,
    "mesel": 5713,
    "alım": 5714,
    "van": 5715,
    "##çak": 5716,
    "buradan": 5717,
    "çocukların": 5718,
    "anah": 5719,
    "üstün": 5720,
    "jap": 5721,
    "ters": 5722,
    "geçerli": 5723,
    "vek": 5724,
    "metin": 5725,
    "çaba": 5726,
    "##erseniz": 5727,
    "hasan": 5728,
    "acil": 5729,
    "ex": 5730,
    "sk": 5731,
    "##süz": 5732,
    "##cının": 5733,
    "vakit": 5734,
    "##urum": 5735,
    "##öğret": 5736,
    "##kale": 5737,
    "piyasa": 5738,
    "duyg": 5739,
    "gali": 5740,
    "cilt": 5741,
    "##ayla": 5742,
    "adını": 5743,
    "euro": 5744,
    "##sında": 5745,
    "şef": 5746,
    "hz": 5747,
    "yürüy": 5748,
    "sanatçı": 5749,
    "temin": 5750,
    "zir": 5751,
    "rum": 5752,
    "söylen": 5753,
    "yed": 5754,
    "##ersiz": 5755,
    "haft": 5756,
    "kayna": 5757,
    "##ımın": 5758,
    "##fat": 5759,
    "win": 5760,
    "aca": 5761,
    "detaylı": 5762,
    "##ron": 5763,
    "ağaç": 5764,
    "ifad": 5765,
    "küt": 5766,
    "##ısız": 5767,
    "##’na": 5768,
    "anlayış": 5769,
    "kod": 5770,
    "2005": 5771,
    "##landa": 5772,
    "çeken": 5773,
    "taban": 5774,
    "şaş": 5775,
    "##üny": 5776,
    "bekliyor": 5777,
    "##zi": 5778,
    "ihtiyacı": 5779,
    "##ser": 5780,
    "cm": 5781,
    "savaşı": 5782,
    "istih": 5783,
    "etkisi": 5784,
    "krit": 5785,
    "adana": 5786,
    "zih": 5787,
    "kaydetti": 5788,
    "kişilerin": 5789,
    "önceden": 5790,
    "##memek": 5791,
    "##iyorlar": 5792,
    "çak": 5793,
    "buz": 5794,
    "##eral": 5795,
    "olduğumuz": 5796,
    "imkan": 5797,
    "ısı": 5798,
    "##hat": 5799,
    "anlamına": 5800,
    "komp": 5801,
    "harit": 5802,
    "cuma": 5803,
    "derec": 5804,
    "yerini": 5805,
    "getiren": 5806,
    "bakış": 5807,
    "##rahim": 5808,
    "işle": 5809,
    "nitelik": 5810,
    "33": 5811,
    "bask": 5812,
    "##imden": 5813,
    "ülkede": 5814,
    "itir": 5815,
    "##ire": 5816,
    "öt": 5817,
    "maliyet": 5818,
    "yıldırım": 5819,
    "seyahat": 5820,
    "rakam": 5821,
    "çıkarı": 5822,
    "diyerek": 5823,
    "lar": 5824,
    "##ıyoruz": 5825,
    "sorgu": 5826,
    "depo": 5827,
    "##dığına": 5828,
    "etmesi": 5829,
    "##his": 5830,
    "sağla": 5831,
    "##ılabilir": 5832,
    "işin": 5833,
    "kiralama": 5834,
    "eb": 5835,
    "konser": 5836,
    "bl": 5837,
    "##inal": 5838,
    "hakları": 5839,
    "pil": 5840,
    "##abilecek": 5841,
    "i̇kinci": 5842,
    "##layıcı": 5843,
    "restor": 5844,
    "##memiz": 5845,
    "mali": 5846,
    "elbette": 5847,
    "günümüzde": 5848,
    "kullanımı": 5849,
    "ekonomi": 5850,
    "seks": 5851,
    "fatih": 5852,
    "ilgilen": 5853,
    "ihracat": 5854,
    "rece": 5855,
    "rü": 5856,
    "otomatik": 5857,
    "gidip": 5858,
    "misaf": 5859,
    "şikayet": 5860,
    "kendilerine": 5861,
    "##lığıyla": 5862,
    "##masıyla": 5863,
    "şun": 5864,
    "##rim": 5865,
    "veri": 5866,
    "bölgede": 5867,
    "bugüne": 5868,
    "özellikleri": 5869,
    "gitti": 5870,
    "ney": 5871,
    "##sur": 5872,
    "diyen": 5873,
    "bulunma": 5874,
    "mesaf": 5875,
    "verildi": 5876,
    "##uyorum": 5877,
    "müdahale": 5878,
    "istik": 5879,
    "söyleyen": 5880,
    "##çuk": 5881,
    "##dün": 5882,
    "gazetec": 5883,
    "deng": 5884,
    "albüm": 5885,
    "köpr": 5886,
    "direktör": 5887,
    "sö": 5888,
    "hoca": 5889,
    "2004": 5890,
    "ağrı": 5891,
    "##allah": 5892,
    "çerçevesinde": 5893,
    "birik": 5894,
    "bahset": 5895,
    "belirli": 5896,
    "##tuk": 5897,
    "##udi": 5898,
    "ayrıntı": 5899,
    "##çiler": 5900,
    "##meyecek": 5901,
    "avukat": 5902,
    "ticari": 5903,
    "hakim": 5904,
    "farkında": 5905,
    "posta": 5906,
    "hazırlık": 5907,
    "koç": 5908,
    "ler": 5909,
    "kısmı": 5910,
    "cumhuriyeti": 5911,
    "##yüz": 5912,
    "##köy": 5913,
    "##amaz": 5914,
    "büny": 5915,
    "vb": 5916,
    "dedim": 5917,
    "olanlar": 5918,
    "hit": 5919,
    "dünyaya": 5920,
    "dekor": 5921,
    "başlangı": 5922,
    "bitk": 5923,
    "cüm": 5924,
    "##ulur": 5925,
    "yıllar": 5926,
    "tipi": 5927,
    "##lerimizi": 5928,
    "kanunu": 5929,
    "sağlayacak": 5930,
    "ep": 5931,
    "kampanya": 5932,
    "deney": 5933,
    "##ınar": 5934,
    "tecrüb": 5935,
    "diler": 5936,
    "verilm": 5937,
    "tehdit": 5938,
    "##kel": 5939,
    "hediye": 5940,
    "##mediği": 5941,
    "içerik": 5942,
    "akl": 5943,
    "kör": 5944,
    "##10": 5945,
    "danışman": 5946,
    "lu": 5947,
    "pkk": 5948,
    "final": 5949,
    "##ti̇": 5950,
    "konya": 5951,
    "biy": 5952,
    "üs": 5953,
    "ert": 5954,
    "##lanarak": 5955,
    "bağış": 5956,
    "##tuğ": 5957,
    "konfer": 5958,
    "giderek": 5959,
    "kaza": 5960,
    "pozisyon": 5961,
    "katılan": 5962,
    "kurban": 5963,
    "ade": 5964,
    "##ws": 5965,
    "modelleri": 5966,
    "ettiğini": 5967,
    "##ation": 5968,
    "analiz": 5969,
    "ajans": 5970,
    "petrol": 5971,
    "sistemleri": 5972,
    "pren": 5973,
    "olduğundan": 5974,
    "recep": 5975,
    "##ds": 5976,
    "haberleri": 5977,
    "##ator": 5978,
    "doğrult": 5979,
    "taki": 5980,
    "özelliği": 5981,
    "istedi": 5982,
    "sta": 5983,
    "sorumluluk": 5984,
    "sunuyor": 5985,
    "hin": 5986,
    "##fı": 5987,
    "##üyle": 5988,
    "##’ne": 5989,
    "şif": 5990,
    "##iyan": 5991,
    "metre": 5992,
    "##’deki": 5993,
    "toplumsal": 5994,
    "usta": 5995,
    "kulak": 5996,
    "anlama": 5997,
    "onunla": 5998,
    "becer": 5999,
    "300": 6000,
    "terk": 6001,
    "zeytin": 6002,
    "34": 6003,
    "birinin": 6004,
    "yasal": 6005,
    "dip": 6006,
    "sağlaya": 6007,
    "görünü": 6008,
    "yapabilir": 6009,
    "binlerce": 6010,
    "mısır": 6011,
    "##ıklı": 6012,
    "cas": 6013,
    "sonuna": 6014,
    "gelip": 6015,
    "altern": 6016,
    "ayakka": 6017,
    "jan": 6018,
    "ri": 6019,
    "kulüp": 6020,
    "iptal": 6021,
    "yerli": 6022,
    "başlıyor": 6023,
    "sevgil": 6024,
    "köpek": 6025,
    "heyecan": 6026,
    "dışişleri": 6027,
    "##bal": 6028,
    "##larımıza": 6029,
    "ofis": 6030,
    "duruş": 6031,
    "vad": 6032,
    "##anlığı": 6033,
    "##mail": 6034,
    "eriş": 6035,
    "##tın": 6036,
    "face": 6037,
    "falan": 6038,
    "yapılmış": 6039,
    "rast": 6040,
    "##düğünü": 6041,
    "##aka": 6042,
    "08": 6043,
    "serg": 6044,
    "##hn": 6045,
    "hapis": 6046,
    "anayasa": 6047,
    "kred": 6048,
    "istek": 6049,
    "iktidar": 6050,
    "i̇nternet": 6051,
    "##erken": 6052,
    "##’yi": 6053,
    "önümüzdeki": 6054,
    "“k": 6055,
    "erz": 6056,
    "vermiş": 6057,
    "sinema": 6058,
    "olası": 6059,
    "müt": 6060,
    "##diniz": 6061,
    "almaya": 6062,
    "acaba": 6063,
    "öte": 6064,
    "moda": 6065,
    "yenil": 6066,
    "müşteriler": 6067,
    "düzenli": 6068,
    "parçası": 6069,
    "sinir": 6070,
    "anti": 6071,
    "eklen": 6072,
    "##ong": 6073,
    "##land": 6074,
    "he": 6075,
    "est": 6076,
    "okuy": 6077,
    "yaşıyor": 6078,
    "sakin": 6079,
    "fu": 6080,
    "açıkla": 6081,
    "diyar": 6082,
    "##onu": 6083,
    "##vik": 6084,
    "mutfak": 6085,
    "içeren": 6086,
    "hayatı": 6087,
    "ölü": 6088,
    "##ebi": 6089,
    "gelişim": 6090,
    "getirdi": 6091,
    "zek": 6092,
    "2007": 6093,
    "kıya": 6094,
    "kapasit": 6095,
    "##yu": 6096,
    "onur": 6097,
    "kayıp": 6098,
    "çağır": 6099,
    "yayınları": 6100,
    "çet": 6101,
    "##dil": 6102,
    "duyar": 6103,
    "##ata": 6104,
    "##ino": 6105,
    "##zu": 6106,
    "alternatif": 6107,
    "insanları": 6108,
    "gençlik": 6109,
    "i̇dar": 6110,
    "03": 6111,
    "kalma": 6112,
    "yürür": 6113,
    "##doğu": 6114,
    "açılış": 6115,
    "hazırlanan": 6116,
    "benimle": 6117,
    "kaymak": 6118,
    "içindeki": 6119,
    "2000": 6120,
    "istedik": 6121,
    "eh": 6122,
    "sabit": 6123,
    "usul": 6124,
    "##qu": 6125,
    "tayyip": 6126,
    "ince": 6127,
    "ja": 6128,
    "bozuk": 6129,
    "görsel": 6130,
    "yatır": 6131,
    "ilçesinde": 6132,
    "yumur": 6133,
    "yaparken": 6134,
    "kalın": 6135,
    "##ayım": 6136,
    "bununla": 6137,
    "i̇brahim": 6138,
    "bölgesi": 6139,
    "arkadaşlar": 6140,
    "koc": 6141,
    "##arında": 6142,
    "mir": 6143,
    "tit": 6144,
    "işler": 6145,
    "bölgesinde": 6146,
    "i̇span": 6147,
    "bis": 6148,
    "taşıyan": 6149,
    "uyum": 6150,
    "oğlu": 6151,
    "##istin": 6152,
    "olanak": 6153,
    "bilimsel": 6154,
    "oyunları": 6155,
    "##işi": 6156,
    "tarihli": 6157,
    "süren": 6158,
    "özen": 6159,
    "##ht": 6160,
    "göğ": 6161,
    "geb": 6162,
    "suy": 6163,
    "doğrultusunda": 6164,
    "verme": 6165,
    "i̇lç": 6166,
    "##yken": 6167,
    "boğaz": 6168,
    "yü": 6169,
    "kesim": 6170,
    "olduğunuz": 6171,
    "yapımı": 6172,
    "sağlam": 6173,
    "##öğretim": 6174,
    "##lır": 6175,
    "araz": 6176,
    "babam": 6177,
    "##dra": 6178,
    "dans": 6179,
    "##makla": 6180,
    "kanıt": 6181,
    "evren": 6182,
    "ülkemizde": 6183,
    "zaf": 6184,
    "##ever": 6185,
    "denetim": 6186,
    "çalıştır": 6187,
    "##eğini": 6188,
    "ayk": 6189,
    "başken": 6190,
    "cok": 6191,
    "##tion": 6192,
    "##inda": 6193,
    "organizasyon": 6194,
    "kurulan": 6195,
    "zamanı": 6196,
    "tw": 6197,
    "##bilirim": 6198,
    "güvenilir": 6199,
    "kaya": 6200,
    "##emen": 6201,
    "hastanesi": 6202,
    "##düz": 6203,
    "saray": 6204,
    "##embe": 6205,
    "##ýr": 6206,
    "üyeleri": 6207,
    "kalite": 6208,
    "bilmiyorum": 6209,
    "dey": 6210,
    "süreci": 6211,
    "karşılık": 6212,
    "##eğe": 6213,
    "hüseyin": 6214,
    "endü": 6215,
    "pi": 6216,
    "kurumu": 6217,
    "dönüştür": 6218,
    "sonuçları": 6219,
    "bekle": 6220,
    "bilet": 6221,
    "yur": 6222,
    "kere": 6223,
    "kılıç": 6224,
    "elbis": 6225,
    "rüya": 6226,
    "kurumsal": 6227,
    "ömer": 6228,
    "kanser": 6229,
    "##iner": 6230,
    "işlemi": 6231,
    "##tedir": 6232,
    "fiyatı": 6233,
    "ağz": 6234,
    "##bi̇": 6235,
    "mavi": 6236,
    "zamanlarda": 6237,
    "turk": 6238,
    "geril": 6239,
    "oldukları": 6240,
    "şimd": 6241,
    "##ağa": 6242,
    "küresel": 6243,
    "selam": 6244,
    "izley": 6245,
    "ins": 6246,
    "dikkate": 6247,
    "kimlik": 6248,
    "örgütü": 6249,
    "gidiyor": 6250,
    "ligi": 6251,
    "##lor": 6252,
    "konak": 6253,
    "ödem": 6254,
    "şaşır": 6255,
    "##teşem": 6256,
    "geçici": 6257,
    "ufak": 6258,
    "görünüyor": 6259,
    "##uluyor": 6260,
    "##celi": 6261,
    "büyüm": 6262,
    "vi": 6263,
    "dokun": 6264,
    "kişiye": 6265,
    "evlen": 6266,
    "yetkili": 6267,
    "kalır": 6268,
    "##tl": 6269,
    "şık": 6270,
    "mesela": 6271,
    "tanıtım": 6272,
    "edebil": 6273,
    "06": 6274,
    "tanın": 6275,
    "zorunlu": 6276,
    "tepki": 6277,
    "maden": 6278,
    "##rem": 6279,
    "facebook": 6280,
    "kimi": 6281,
    "temizlik": 6282,
    "önemlidir": 6283,
    "##iklet": 6284,
    "##luluğu": 6285,
    "lir": 6286,
    "bedel": 6287,
    "gözlem": 6288,
    "müsa": 6289,
    "gazete": 6290,
    "##i̇m": 6291,
    "##sını": 6292,
    "yönlendir": 6293,
    "yör": 6294,
    "hassas": 6295,
    "55": 6296,
    "ettim": 6297,
    "dönemi": 6298,
    "set": 6299,
    "##cisi": 6300,
    "yolcu": 6301,
    "çeki": 6302,
    "kilis": 6303,
    "2003": 6304,
    "muhteşem": 6305,
    "olağan": 6306,
    "##liğinin": 6307,
    "şirketi": 6308,
    "tb": 6309,
    "2009": 6310,
    "dij": 6311,
    "##ulmuş": 6312,
    "benden": 6313,
    "fık": 6314,
    "2008": 6315,
    "muham": 6316,
    "dernek": 6317,
    "devletin": 6318,
    "teşvik": 6319,
    "tartışma": 6320,
    "ramaz": 6321,
    "##bel": 6322,
    "##stit": 6323,
    "adamı": 6324,
    "2002": 6325,
    "şeyin": 6326,
    "inşaat": 6327,
    "##gre": 6328,
    "##ığ": 6329,
    "##isin": 6330,
    "gitmek": 6331,
    "metal": 6332,
    "07": 6333,
    "değişim": 6334,
    "maçı": 6335,
    "sağlan": 6336,
    "48": 6337,
    "vir": 6338,
    "##acağız": 6339,
    "renkli": 6340,
    "lezzet": 6341,
    "##jen": 6342,
    "mit": 6343,
    "##ilerden": 6344,
    "üretic": 6345,
    "yedi": 6346,
    "kendilerini": 6347,
    "kadının": 6348,
    "değeri": 6349,
    "##usunu": 6350,
    "##leriniz": 6351,
    "##maye": 6352,
    "hızla": 6353,
    "koor": 6354,
    "sağlığı": 6355,
    "daire": 6356,
    "çalışması": 6357,
    "süs": 6358,
    "bı": 6359,
    "yumurta": 6360,
    "gerekç": 6361,
    "kanunun": 6362,
    "htt": 6363,
    "toz": 6364,
    "ib": 6365,
    "aşağıda": 6366,
    "demektir": 6367,
    "yarım": 6368,
    "nefes": 6369,
    "sebebi": 6370,
    "konuk": 6371,
    "desteği": 6372,
    "lok": 6373,
    "##müyor": 6374,
    "##oyu": 6375,
    "kamera": 6376,
    "kalem": 6377,
    "refer": 6378,
    "öğrencilerin": 6379,
    "##sit": 6380,
    "değilim": 6381,
    "misafir": 6382,
    "mikro": 6383,
    "kendimi": 6384,
    "ob": 6385,
    "babası": 6386,
    "lab": 6387,
    "çıkacak": 6388,
    "sendik": 6389,
    "muhtem": 6390,
    "38": 6391,
    "##imizden": 6392,
    "geleceğ": 6393,
    "alınması": 6394,
    "görüşmeler": 6395,
    "bulundur": 6396,
    "geldiği": 6397,
    "##lıdır": 6398,
    "rekabet": 6399,
    "tanıt": 6400,
    "açılan": 6401,
    "04": 6402,
    "tedbir": 6403,
    "eşi": 6404,
    "ismi": 6405,
    "##are": 6406,
    "dijital": 6407,
    "coğraf": 6408,
    "anlaşı": 6409,
    "##anda": 6410,
    "##leşme": 6411,
    "##ğında": 6412,
    "##dılar": 6413,
    "kapan": 6414,
    "görülen": 6415,
    "rab": 6416,
    "ayrıl": 6417,
    "##lıkta": 6418,
    "şube": 6419,
    "rüz": 6420,
    "37": 6421,
    "niyet": 6422,
    "##eliği": 6423,
    "uzat": 6424,
    "kültürel": 6425,
    "bm": 6426,
    "değerlendirme": 6427,
    "mhp": 6428,
    "ilginç": 6429,
    "istediği": 6430,
    "gerçekleştirilen": 6431,
    "ekley": 6432,
    "##mesiyle": 6433,
    "görme": 6434,
    "##bey": 6435,
    "donan": 6436,
    "kalb": 6437,
    "##lemeye": 6438,
    "etkilen": 6439,
    "##i̇k": 6440,
    "evden": 6441,
    "dini": 6442,
    "##diğine": 6443,
    "birer": 6444,
    "nakliyat": 6445,
    "mür": 6446,
    "yaşaya": 6447,
    "yangın": 6448,
    "klasik": 6449,
    "uyarı": 6450,
    "genelde": 6451,
    "eleman": 6452,
    "ani": 6453,
    "güzellik": 6454,
    "ran": 6455,
    "ürünü": 6456,
    "##ff": 6457,
    "sevgi": 6458,
    "yeme": 6459,
    "mini": 6460,
    "sekret": 6461,
    "etki": 6462,
    "yurtdı": 6463,
    "halkın": 6464,
    "sevgili": 6465,
    "##ud": 6466,
    "konferans": 6467,
    "tasarımı": 6468,
    "paşa": 6469,
    "uygulaması": 6470,
    "anahtar": 6471,
    "gösteriyor": 6472,
    "görür": 6473,
    "girdi": 6474,
    "alındı": 6475,
    "sizler": 6476,
    "##gılan": 6477,
    "##enk": 6478,
    "malzeme": 6479,
    "gözalt": 6480,
    "bilinç": 6481,
    "yumuş": 6482,
    "halı": 6483,
    "okuma": 6484,
    "ediliyor": 6485,
    "radyo": 6486,
    "##duğumuz": 6487,
    "##emesi": 6488,
    "##tacak": 6489,
    "##nin": 6490,
    "üstüne": 6491,
    "çağr": 6492,
    "##okul": 6493,
    "söylemek": 6494,
    "kağıt": 6495,
    "belgesi": 6496,
    "esn": 6497,
    "yel": 6498,
    "blog": 6499,
    "##nik": 6500,
    "idi": 6501,
    "çalışı": 6502,
    "##les": 6503,
    "ulaştır": 6504,
    "çanak": 6505,
    "i̇liş": 6506,
    "bütç": 6507,
    "popüler": 6508,
    "##ınma": 6509,
    "kadınların": 6510,
    "amaçlı": 6511,
    "başlangıç": 6512,
    "kafa": 6513,
    "##bb": 6514,
    "aldım": 6515,
    "##şet": 6516,
    "makam": 6517,
    "sahib": 6518,
    "##cağına": 6519,
    "kıyafet": 6520,
    "##bank": 6521,
    "taraftar": 6522,
    "##ksiyon": 6523,
    "seyir": 6524,
    "kurs": 6525,
    "yaşadığı": 6526,
    "ilişkiler": 6527,
    "sevin": 6528,
    "bilgilendir": 6529,
    "takv": 6530,
    "denk": 6531,
    "i̇şlet": 6532,
    "pap": 6533,
    "##asi": 6534,
    "ca": 6535,
    "##mara": 6536,
    "iken": 6537,
    "sün": 6538,
    "sever": 6539,
    "##di̇": 6540,
    "demokratik": 6541,
    "app": 6542,
    "yunanistan": 6543,
    "sıv": 6544,
    "##mar": 6545,
    "boyu": 6546,
    "altyap": 6547,
    "itibariyle": 6548,
    "sermaye": 6549,
    "azalt": 6550,
    "dalga": 6551,
    "##usal": 6552,
    "tali": 6553,
    "hayatta": 6554,
    "##leyici": 6555,
    "birşey": 6556,
    "yedek": 6557,
    "istiyoruz": 6558,
    "##sh": 6559,
    "##’ün": 6560,
    "##tak": 6561,
    "##bon": 6562,
    "olmayacak": 6563,
    "havuz": 6564,
    "masa": 6565,
    "şük": 6566,
    "kullanmak": 6567,
    "yaptıkları": 6568,
    "çekil": 6569,
    "kullanılır": 6570,
    "kulübü": 6571,
    "unsur": 6572,
    "almaktadır": 6573,
    "hücr": 6574,
    "kilomet": 6575,
    "günün": 6576,
    "75": 6577,
    "edilmiştir": 6578,
    "##i̇z": 6579,
    "##i̇l": 6580,
    "ramazan": 6581,
    "dakikada": 6582,
    "mün": 6583,
    "sir": 6584,
    "malat": 6585,
    "yağmur": 6586,
    "stat": 6587,
    "tom": 6588,
    "##alan": 6589,
    "kayded": 6590,
    "enflasyon": 6591,
    "seçen": 6592,
    "görevi": 6593,
    "##tanın": 6594,
    "44": 6595,
    "teşki": 6596,
    "65": 6597,
    "geleneksel": 6598,
    "sıf": 6599,
    "##sey": 6600,
    "ederken": 6601,
    "işlemleri": 6602,
    "düğün": 6603,
    "##uyucu": 6604,
    "birbirinden": 6605,
    "##i̇t": 6606,
    "darbe": 6607,
    "##gü": 6608,
    "lev": 6609,
    "##leri̇": 6610,
    "##bakır": 6611,
    "##distan": 6612,
    "koordin": 6613,
    "yolunda": 6614,
    "çocuğun": 6615,
    "##ment": 6616,
    "söyler": 6617,
    "##luluğ": 6618,
    "fonksiyon": 6619,
    "platform": 6620,
    "##isyen": 6621,
    "##labilir": 6622,
    "##dukları": 6623,
    "oranında": 6624,
    "tarihleri": 6625,
    "aley": 6626,
    "bulmak": 6627,
    "##laj": 6628,
    "enstit": 6629,
    "anı": 6630,
    "edebilir": 6631,
    "tepk": 6632,
    "##pe": 6633,
    "##arya": 6634,
    "kartı": 6635,
    "mate": 6636,
    "deprem": 6637,
    "vah": 6638,
    "planı": 6639,
    "lid": 6640,
    "##liyoruz": 6641,
    "ayakkabı": 6642,
    "##acağını": 6643,
    "##ülmesi": 6644,
    "##amik": 6645,
    "tim": 6646,
    "##ick": 6647,
    "sözleşme": 6648,
    "dilek": 6649,
    "takdirde": 6650,
    "avust": 6651,
    "yenilik": 6652,
    "uğur": 6653,
    "gelişmeler": 6654,
    "##des": 6655,
    "##ard": 6656,
    "bulunur": 6657,
    "evlilik": 6658,
    "kâ": 6659,
    "faktör": 6660,
    "birleştir": 6661,
    "suret": 6662,
    "mezar": 6663,
    "herkese": 6664,
    "alabilirsiniz": 6665,
    "nik": 6666,
    "halen": 6667,
    "komş": 6668,
    "değildi": 6669,
    "azından": 6670,
    "##zan": 6671,
    "ilişki": 6672,
    "yoktu": 6673,
    "emir": 6674,
    "##sına": 6675,
    "ekib": 6676,
    "dinle": 6677,
    "##manızı": 6678,
    "uçuş": 6679,
    "vs": 6680,
    "##nan": 6681,
    "##isa": 6682,
    "##nak": 6683,
    "##üldü": 6684,
    "mül": 6685,
    "rakip": 6686,
    "dür": 6687,
    "ülkeler": 6688,
    "##wn": 6689,
    "numar": 6690,
    "benzeri": 6691,
    "zirv": 6692,
    "kaçak": 6693,
    "konuşan": 6694,
    "##lılar": 6695,
    "asya": 6696,
    "mahkeme": 6697,
    "##ıklık": 6698,
    "cinayet": 6699,
    "ışı": 6700,
    "kısım": 6701,
    "sürücü": 6702,
    "##isiniz": 6703,
    "basket": 6704,
    "##anacak": 6705,
    "##ilmektedir": 6706,
    "esna": 6707,
    "ihale": 6708,
    "ilçe": 6709,
    "i̇sv": 6710,
    "i̇çin": 6711,
    "kaynağı": 6712,
    "bazıları": 6713,
    "antren": 6714,
    "okulu": 6715,
    "diyarbakır": 6716,
    "##mekten": 6717,
    "kimsenin": 6718,
    "hissed": 6719,
    "özür": 6720,
    "elinde": 6721,
    "##ore": 6722,
    "##antep": 6723,
    "biçim": 6724,
    "##laşıyor": 6725,
    "##meyin": 6726,
    "york": 6727,
    "olmayı": 6728,
    "koltuk": 6729,
    "modeli": 6730,
    "beyan": 6731,
    "beyin": 6732,
    "39": 6733,
    "##ılmasını": 6734,
    "cevab": 6735,
    "fo": 6736,
    "nat": 6737,
    "güvenliği": 6738,
    "izlen": 6739,
    "olduklarını": 6740,
    "i̇talya": 6741,
    "tap": 6742,
    "işbirliği": 6743,
    "##gesi": 6744,
    "kullanma": 6745,
    "düzelt": 6746,
    "şunları": 6747,
    "##demir": 6748,
    "çıkart": 6749,
    "senar": 6750,
    "mevzu": 6751,
    "yanına": 6752,
    "##melidir": 6753,
    "açıdan": 6754,
    "sorunun": 6755,
    "ulaştı": 6756,
    "##jinal": 6757,
    "yönetmen": 6758,
    "yürüyüş": 6759,
    "##ırlar": 6760,
    "aralarında": 6761,
    "ph": 6762,
    "dua": 6763,
    "amac": 6764,
    "diyet": 6765,
    "milletvekil": 6766,
    "sağlıyor": 6767,
    "##müştür": 6768,
    "##gah": 6769,
    "rej": 6770,
    "garan": 6771,
    "maddi": 6772,
    "##aba": 6773,
    "bez": 6774,
    "edebilirsiniz": 6775,
    "kuma": 6776,
    "42": 6777,
    "pişir": 6778,
    "##ınızın": 6779,
    "kırık": 6780,
    "anlatan": 6781,
    "korku": 6782,
    "potan": 6783,
    "evi": 6784,
    "kos": 6785,
    "sigara": 6786,
    "gümüş": 6787,
    "anlaşma": 6788,
    "##ılıp": 6789,
    "sözleri": 6790,
    "##ülebilir": 6791,
    "sıkı": 6792,
    "##melik": 6793,
    "emekli": 6794,
    "devleti": 6795,
    "##stik": 6796,
    "belirtildi": 6797,
    "şunu": 6798,
    "windo": 6799,
    "tun": 6800,
    "##kaya": 6801,
    "aktiv": 6802,
    "maddesi": 6803,
    "##itir": 6804,
    "##so": 6805,
    "##yasal": 6806,
    "gözaltına": 6807,
    "potansiy": 6808,
    "##erv": 6809,
    "edilecek": 6810,
    "yüzey": 6811,
    "nih": 6812,
    "sorunları": 6813,
    "isti": 6814,
    "##parator": 6815,
    "##don": 6816,
    "##sızlık": 6817,
    "taleb": 6818,
    "vol": 6819,
    "şehr": 6820,
    "fuar": 6821,
    "##duğum": 6822,
    "tev": 6823,
    "doğa": 6824,
    "uzay": 6825,
    "##mos": 6826,
    "beklent": 6827,
    "şeri": 6828,
    "müst": 6829,
    "bakımından": 6830,
    "##dev": 6831,
    "##ılmasına": 6832,
    "gündeme": 6833,
    "bunlardan": 6834,
    "##madığı": 6835,
    "erkekler": 6836,
    "prens": 6837,
    "havalim": 6838,
    "##12": 6839,
    "gördüm": 6840,
    "yaklaşım": 6841,
    "hür": 6842,
    "bağır": 6843,
    "##ruk": 6844,
    "##iki": 6845,
    "cami": 6846,
    "döviz": 6847,
    "yoluyla": 6848,
    "##şi": 6849,
    "incelem": 6850,
    "iade": 6851,
    "çey": 6852,
    "işçi": 6853,
    "##okulu": 6854,
    "yarışma": 6855,
    "gu": 6856,
    "##işehir": 6857,
    "##bilen": 6858,
    "seninle": 6859,
    "yaşar": 6860,
    "teor": 6861,
    "yönünde": 6862,
    "yiyecek": 6863,
    "##ity": 6864,
    "##bileceği": 6865,
    "düşen": 6866,
    "oraya": 6867,
    "komisyonu": 6868,
    "##po": 6869,
    "önde": 6870,
    "fiziksel": 6871,
    "##lý": 6872,
    "arkadaşı": 6873,
    "noktada": 6874,
    "adeta": 6875,
    "##vel": 6876,
    "gazetesi": 6877,
    "##maması": 6878,
    "iyice": 6879,
    "cerrah": 6880,
    "##ıf": 6881,
    "##biy": 6882,
    "yerden": 6883,
    "lideri": 6884,
    "2001": 6885,
    "imkanı": 6886,
    "hediy": 6887,
    "##leyman": 6888,
    "endek": 6889,
    "bahar": 6890,
    "dolaş": 6891,
    "karşıya": 6892,
    "##mesinde": 6893,
    "##ysa": 6894,
    "yılından": 6895,
    "devrim": 6896,
    "##liy": 6897,
    "milliyet": 6898,
    "olduğum": 6899,
    "istanbul": 6900,
    "##cağınız": 6901,
    "karadeniz": 6902,
    "göm": 6903,
    "##lerimizin": 6904,
    "##vat": 6905,
    "dük": 6906,
    "53": 6907,
    "gaziantep": 6908,
    "##aseb": 6909,
    "##lacaktır": 6910,
    "##ding": 6911,
    "##lüğe": 6912,
    "yolda": 6913,
    "sözc": 6914,
    "çocuğu": 6915,
    "filistin": 6916,
    "##kur": 6917,
    "alet": 6918,
    "karma": 6919,
    "##liliği": 6920,
    "pir": 6921,
    "güçlendir": 6922,
    "başlayacak": 6923,
    "##acağım": 6924,
    "yaşat": 6925,
    "sevk": 6926,
    "lon": 6927,
    "je": 6928,
    "üstünde": 6929,
    "karşılaştır": 6930,
    "yayınlanan": 6931,
    "yukarıda": 6932,
    "sertif": 6933,
    "köyü": 6934,
    "müzak": 6935,
    "yapısı": 6936,
    "yaptım": 6937,
    "sus": 6938,
    "güne": 6939,
    "windows": 6940,
    "kalmış": 6941,
    "yürü": 6942,
    "olmadı": 6943,
    "insanlara": 6944,
    "##gs": 6945,
    "##ikat": 6946,
    "yeten": 6947,
    "çocukları": 6948,
    "##sör": 6949,
    "oysa": 6950,
    "durumlarda": 6951,
    "john": 6952,
    "satı": 6953,
    "tbmm": 6954,
    "##ilyon": 6955,
    "##ell": 6956,
    "wil": 6957,
    "bilgiye": 6958,
    "cumartesi": 6959,
    "##yol": 6960,
    "varlık": 6961,
    "##paşa": 6962,
    "mahkemesi": 6963,
    "incelen": 6964,
    "özet": 6965,
    "##ğin": 6966,
    "47": 6967,
    "##pt": 6968,
    "birbirine": 6969,
    "süleyman": 6970,
    "husus": 6971,
    "ekibi": 6972,
    "gördük": 6973,
    "buluşt": 6974,
    "halka": 6975,
    "bakın": 6976,
    "sch": 6977,
    "seri": 6978,
    "##dığından": 6979,
    "adayı": 6980,
    "kupası": 6981,
    "anlamı": 6982,
    "hadi": 6983,
    "raporu": 6984,
    "besin": 6985,
    "kursu": 6986,
    "haberler": 6987,
    "##ğına": 6988,
    "rehber": 6989,
    "uyuştur": 6990,
    "400": 6991,
    "slo": 6992,
    "üstelik": 6993,
    "derg": 6994,
    "hâlâ": 6995,
    "##sup": 6996,
    "doç": 6997,
    "las": 6998,
    "gösterir": 6999,
    "numaralı": 7000,
    "kullanan": 7001,
    "##ileştir": 7002,
    "gerektiği": 7003,
    "olsay": 7004,
    "maaş": 7005,
    "silahlı": 7006,
    "verilir": 7007,
    "##ruf": 7008,
    "aykırı": 7009,
    "ortamda": 7010,
    "##eceğimiz": 7011,
    "##rük": 7012,
    "lisesi": 7013,
    "vitam": 7014,
    "bakalım": 7015,
    "parmak": 7016,
    "vo": 7017,
    "##kon": 7018,
    "deri": 7019,
    "yenilen": 7020,
    "sof": 7021,
    "verg": 7022,
    "işleri": 7023,
    "telefonu": 7024,
    "##rama": 7025,
    "yıllardır": 7026,
    "görünüm": 7027,
    "hekim": 7028,
    "##ükle": 7029,
    "özgürlük": 7030,
    "haklı": 7031,
    "##olog": 7032,
    "kilit": 7033,
    "olacağı": 7034,
    "lük": 7035,
    "bayrak": 7036,
    "yüküm": 7037,
    "cenaz": 7038,
    "194": 7039,
    "cezası": 7040,
    "nem": 7041,
    "wor": 7042,
    "geldiğini": 7043,
    "üretimi": 7044,
    "siteleri": 7045,
    "vermeye": 7046,
    "garanti": 7047,
    "düştü": 7048,
    "kariyer": 7049,
    "lit": 7050,
    "üyelik": 7051,
    "kaps": 7052,
    "##isti": 7053,
    "demokrasi": 7054,
    "##masın": 7055,
    "diplo": 7056,
    "##ji": 7057,
    "alak": 7058,
    "niş": 7059,
    "istiyorsanız": 7060,
    "düzenleme": 7061,
    "adamın": 7062,
    "kullandı": 7063,
    "fazlası": 7064,
    "dili": 7065,
    "muhammed": 7066,
    "##gat": 7067,
    "uğraş": 7068,
    "##enn": 7069,
    "maz": 7070,
    "##biyet": 7071,
    "##mo": 7072,
    "##masyon": 7073,
    "43": 7074,
    "dağıt": 7075,
    "link": 7076,
    "müdürlüğ": 7077,
    "gereği": 7078,
    "oldum": 7079,
    "hadis": 7080,
    "şeyleri": 7081,
    "##ği̇": 7082,
    "çağrı": 7083,
    "##lerdi": 7084,
    "parla": 7085,
    "bireysel": 7086,
    "ır": 7087,
    "kimyasal": 7088,
    "ölçüde": 7089,
    "uyku": 7090,
    "yaşamak": 7091,
    "bildirdi": 7092,
    "düşünce": 7093,
    "kazanan": 7094,
    "vali": 7095,
    "##tc": 7096,
    "ege": 7097,
    "dönüşüm": 7098,
    "çekti": 7099,
    "##ray": 7100,
    "rö": 7101,
    "bölümünde": 7102,
    "şahin": 7103,
    "##amıyor": 7104,
    "##eceksiniz": 7105,
    "duruma": 7106,
    "zamanlar": 7107,
    "46": 7108,
    "##kal": 7109,
    "arş": 7110,
    "ilave": 7111,
    "tasarruf": 7112,
    "##bek": 7113,
    "başı": 7114,
    "kolayca": 7115,
    "##esi̇": 7116,
    "demiş": 7117,
    "##şallah": 7118,
    "oynaya": 7119,
    "mersin": 7120,
    "olmalıdır": 7121,
    "insanı": 7122,
    "muhaf": 7123,
    "yetenek": 7124,
    "ulaşım": 7125,
    "##ıldığını": 7126,
    "##int": 7127,
    "andro": 7128,
    "niye": 7129,
    "firmamız": 7130,
    "##ilerle": 7131,
    "##dınız": 7132,
    "akdeniz": 7133,
    "toplantısı": 7134,
    "##bilmesi": 7135,
    "kelime": 7136,
    "felsef": 7137,
    "büyüme": 7138,
    "sonsuz": 7139,
    "hot": 7140,
    "mutluluk": 7141,
    "##larken": 7142,
    "belirlenen": 7143,
    "ast": 7144,
    "değin": 7145,
    "uça": 7146,
    "kargo": 7147,
    "alınacak": 7148,
    "##seri": 7149,
    "gelişmiş": 7150,
    "disip": 7151,
    "kahvaltı": 7152,
    "görünt": 7153,
    "olamaz": 7154,
    "cennet": 7155,
    "çanakkale": 7156,
    "kahve": 7157,
    "zafer": 7158,
    "mekt": 7159,
    "indirim": 7160,
    "terörist": 7161,
    "yönetmelik": 7162,
    "##ilerde": 7163,
    "41": 7164,
    "##anız": 7165,
    "tü": 7166,
    "bilen": 7167,
    "193": 7168,
    "kızıl": 7169,
    "##’u": 7170,
    "sc": 7171,
    "halkı": 7172,
    "##uyoruz": 7173,
    "##illa": 7174,
    "##23": 7175,
    "yerlerde": 7176,
    "##rom": 7177,
    "pratik": 7178,
    "inc": 7179,
    "verilmesi": 7180,
    "festival": 7181,
    "fan": 7182,
    "##ıldığında": 7183,
    "dalı": 7184,
    "yönetmeli": 7185,
    "150": 7186,
    "mobilya": 7187,
    "195": 7188,
    "esnaf": 7189,
    "gurur": 7190,
    "arzu": 7191,
    "##cıların": 7192,
    "öncesinde": 7193,
    "##ilerinden": 7194,
    "ndan": 7195,
    "hip": 7196,
    "şeye": 7197,
    "jandar": 7198,
    "pazartesi": 7199,
    "##memesi": 7200,
    "günler": 7201,
    "pam": 7202,
    "bilmiyor": 7203,
    "tehlikeli": 7204,
    "manz": 7205,
    "gösterdi": 7206,
    "##liliğ": 7207,
    "abdullah": 7208,
    "yitir": 7209,
    "lan": 7210,
    "mağaza": 7211,
    "pe": 7212,
    "ii": 7213,
    "ekipleri": 7214,
    "gümrük": 7215,
    "fetö": 7216,
    "malatya": 7217,
    "hatırlat": 7218,
    "hasar": 7219,
    "seviye": 7220,
    "ulaşabilirsiniz": 7221,
    "mektup": 7222,
    "olayı": 7223,
    "##teri": 7224,
    "paylaşım": 7225,
    "##laz": 7226,
    "##utu": 7227,
    "imkân": 7228,
    "##larımı": 7229,
    "sporcu": 7230,
    "matematik": 7231,
    "toplan": 7232,
    "çam": 7233,
    "okun": 7234,
    "log": 7235,
    "olmaktadır": 7236,
    "yerler": 7237,
    "bomba": 7238,
    "qu": 7239,
    "##ahh": 7240,
    "ur": 7241,
    "burası": 7242,
    "uyuşturucu": 7243,
    "##hone": 7244,
    "tı": 7245,
    "##lası": 7246,
    "##asındaki": 7247,
    "anlaya": 7248,
    "##irim": 7249,
    "getirmek": 7250,
    "kavuş": 7251,
    "yazık": 7252,
    "##ograf": 7253,
    "meml": 7254,
    "çik": 7255,
    "görüşme": 7256,
    "sessiz": 7257,
    "selçuk": 7258,
    "##bot": 7259,
    "##lerindeki": 7260,
    "afrika": 7261,
    "##cılığı": 7262,
    "nev": 7263,
    "kaybol": 7264,
    "tuş": 7265,
    "##day": 7266,
    "bizler": 7267,
    "attı": 7268,
    "protok": 7269,
    "çıkmış": 7270,
    "hazırla": 7271,
    "etmiştir": 7272,
    "yapabilirsiniz": 7273,
    "gecik": 7274,
    "açma": 7275,
    "türü": 7276,
    "##ks": 7277,
    "pazarlama": 7278,
    "alkol": 7279,
    "bulama": 7280,
    "ziya": 7281,
    "54": 7282,
    "söyleye": 7283,
    "tad": 7284,
    "genelinde": 7285,
    "rezerv": 7286,
    "kaçın": 7287,
    "bütçe": 7288,
    "itiraz": 7289,
    "##lete": 7290,
    "atık": 7291,
    "yakından": 7292,
    "neyse": 7293,
    "toplumun": 7294,
    "algı": 7295,
    "soruşturma": 7296,
    "sürü": 7297,
    "##alesef": 7298,
    "ful": 7299,
    "sektöründe": 7300,
    "nec": 7301,
    "bilgisi": 7302,
    "##ilmesini": 7303,
    "hakan": 7304,
    "##veren": 7305,
    "##ub": 7306,
    "muay": 7307,
    "##diy": 7308,
    "nden": 7309,
    "sürece": 7310,
    "şehrin": 7311,
    "ihtimal": 7312,
    "kaş": 7313,
    "sıfır": 7314,
    "nam": 7315,
    "klima": 7316,
    "prote": 7317,
    "sonuçlar": 7318,
    "i̇nşa": 7319,
    "memleket": 7320,
    "kongr": 7321,
    "post": 7322,
    "saniye": 7323,
    "neh": 7324,
    "yaptığını": 7325,
    "temas": 7326,
    "efendim": 7327,
    "zamanında": 7328,
    "maçında": 7329,
    "##ülük": 7330,
    "paris": 7331,
    "meyve": 7332,
    "##eceğine": 7333,
    "zinc": 7334,
    "maalesef": 7335,
    "##itesi": 7336,
    "antik": 7337,
    "hakem": 7338,
    "salonu": 7339,
    "##leki": 7340,
    "eğil": 7341,
    "ekmek": 7342,
    "dayalı": 7343,
    "nefret": 7344,
    "okur": 7345,
    "teşekkürler": 7346,
    "ağız": 7347,
    "nesil": 7348,
    "sebebiyle": 7349,
    "mail": 7350,
    "bünyesinde": 7351,
    "##ülür": 7352,
    "sunan": 7353,
    "bodr": 7354,
    "kazandı": 7355,
    "##git": 7356,
    "meden": 7357,
    "cins": 7358,
    "geliştirme": 7359,
    "##hum": 7360,
    "##tılan": 7361,
    "##cası": 7362,
    "##lesi": 7363,
    "haberi": 7364,
    "android": 7365,
    "vic": 7366,
    "mac": 7367,
    "##zat": 7368,
    "edildiği": 7369,
    "buldu": 7370,
    "alanlar": 7371,
    "##lerken": 7372,
    "adlandır": 7373,
    "sahne": 7374,
    "yükselt": 7375,
    "##rag": 7376,
    "gençler": 7377,
    "tedavisi": 7378,
    "sıvı": 7379,
    "ideal": 7380,
    "annem": 7381,
    "birinc": 7382,
    "istedim": 7383,
    "yakış": 7384,
    "gayet": 7385,
    "sözü": 7386,
    "vermektedir": 7387,
    "verim": 7388,
    "labor": 7389,
    "ailen": 7390,
    "hayran": 7391,
    "##’yı": 7392,
    "ödülü": 7393,
    "##mesinden": 7394,
    "vakfı": 7395,
    "başlama": 7396,
    "49": 7397,
    "başlaya": 7398,
    "kütüp": 7399,
    "maçta": 7400,
    "##mıyorum": 7401,
    "sız": 7402,
    "göğüs": 7403,
    "##oto": 7404,
    "salı": 7405,
    "biridir": 7406,
    "konularda": 7407,
    "alınarak": 7408,
    "isterseniz": 7409,
    "##anıyorum": 7410,
    "panel": 7411,
    "istediğim": 7412,
    "##teyiz": 7413,
    "##sızın": 7414,
    "bileş": 7415,
    "rektör": 7416,
    "bos": 7417,
    "##usuna": 7418,
    "karanlık": 7419,
    "karay": 7420,
    "##si̇": 7421,
    "beslenme": 7422,
    "##leyerek": 7423,
    "bro": 7424,
    "çıkara": 7425,
    "protokol": 7426,
    "muhale": 7427,
    "##duğunuz": 7428,
    "##ori": 7429,
    "aracılığıyla": 7430,
    "kenar": 7431,
    "yolculuk": 7432,
    "suna": 7433,
    "civarında": 7434,
    "##kır": 7435,
    "düşünür": 7436,
    "bodrum": 7437,
    "##menizi": 7438,
    "eğlenceli": 7439,
    "çalışmak": 7440,
    "sırt": 7441,
    "kamyon": 7442,
    "iğ": 7443,
    "tüz": 7444,
    "filmin": 7445,
    "öğle": 7446,
    "artan": 7447,
    "##ileş": 7448,
    "mensup": 7449,
    "##leyecek": 7450,
    "süredir": 7451,
    "organize": 7452,
    "tal": 7453,
    "yaptığımız": 7454,
    "meclisi": 7455,
    "i̇smail": 7456,
    "borsa": 7457,
    "uzmanı": 7458,
    "eskişehir": 7459,
    "egemen": 7460,
    "##onun": 7461,
    "vererek": 7462,
    "fabrik": 7463,
    "sorunlar": 7464,
    "mm": 7465,
    "##ki̇": 7466,
    "kıymet": 7467,
    "##fe": 7468,
    "##acaktır": 7469,
    "##sü": 7470,
    "##araj": 7471,
    "##melerini": 7472,
    "etiketler": 7473,
    "tutan": 7474,
    "karşın": 7475,
    "i̇let": 7476,
    "##yaj": 7477,
    "kocaeli": 7478,
    "damar": 7479,
    "misiniz": 7480,
    "sürpr": 7481,
    "anlattı": 7482,
    "alanları": 7483,
    "##eyecek": 7484,
    "hemş": 7485,
    "##lenir": 7486,
    "banyo": 7487,
    "yaşama": 7488,
    "kayseri": 7489,
    "darb": 7490,
    "kısı": 7491,
    "##elendir": 7492,
    "basketbol": 7493,
    "52": 7494,
    "mesleki": 7495,
    "kutsal": 7496,
    "hali": 7497,
    "##imle": 7498,
    "çil": 7499,
    "##ebek": 7500,
    "kalıyor": 7501,
    "çizg": 7502,
    "yapıldığı": 7503,
    "kore": 7504,
    "edilebilir": 7505,
    "##denin": 7506,
    "##çisi": 7507,
    "##ansiyon": 7508,
    "##şe": 7509,
    "eya": 7510,
    "gözet": 7511,
    "hatırla": 7512,
    "kazanç": 7513,
    "hollanda": 7514,
    "dikkatli": 7515,
    "tazmin": 7516,
    "çarşam": 7517,
    "##rop": 7518,
    "makine": 7519,
    "firması": 7520,
    "ümit": 7521,
    "baktığ": 7522,
    "gidecek": 7523,
    "yetersiz": 7524,
    "##tek": 7525,
    "ira": 7526,
    "düzeyde": 7527,
    "forum": 7528,
    "fabrika": 7529,
    "laborat": 7530,
    "zemin": 7531,
    "##atistik": 7532,
    "birine": 7533,
    "##cin": 7534,
    "ris": 7535,
    "##tah": 7536,
    "##emeyen": 7537,
    "istihdam": 7538,
    "parlak": 7539,
    "##satı": 7540,
    "arkadaşım": 7541,
    "turnu": 7542,
    "##los": 7543,
    "##gini": 7544,
    "umarım": 7545,
    "makinesi": 7546,
    "yaratıcı": 7547,
    "##ılmaktadır": 7548,
    "bildirildi": 7549,
    "kiralık": 7550,
    "vakıf": 7551,
    "korumak": 7552,
    "##dunuz": 7553,
    "işgal": 7554,
    "ailesi": 7555,
    "kıv": 7556,
    "sayede": 7557,
    "alışk": 7558,
    "alınır": 7559,
    "kalıcı": 7560,
    "verici": 7561,
    "roma": 7562,
    "noktası": 7563,
    "muk": 7564,
    "makyaj": 7565,
    "##ima": 7566,
    "mp": 7567,
    "tanesi": 7568,
    "sahil": 7569,
    "“h": 7570,
    "gal": 7571,
    "##ısal": 7572,
    "uk": 7573,
    "raki": 7574,
    "kullandığı": 7575,
    "bonus": 7576,
    "##lerimize": 7577,
    "##lanabilir": 7578,
    "##melerin": 7579,
    "bulut": 7580,
    "uyumlu": 7581,
    "maruz": 7582,
    "başlıklı": 7583,
    "##pat": 7584,
    "##ilmesine": 7585,
    "çarşamba": 7586,
    "##fik": 7587,
    "arşiv": 7588,
    "##balık": 7589,
    "aşı": 7590,
    "hükm": 7591,
    "günden": 7592,
    "kuy": 7593,
    "heyet": 7594,
    "esnasında": 7595,
    "yöntemi": 7596,
    "akademik": 7597,
    "##ilmez": 7598,
    "##iyel": 7599,
    "##mis": 7600,
    "yapıp": 7601,
    "endüstr": 7602,
    "ayda": 7603,
    "58": 7604,
    "kumaş": 7605,
    "ytl": 7606,
    "##lıca": 7607,
    "##iyo": 7608,
    "ul": 7609,
    "##dığın": 7610,
    "##ib": 7611,
    "oyunc": 7612,
    "aziz": 7613,
    "gerektiğ": 7614,
    "laf": 7615,
    "##liye": 7616,
    "##ilya": 7617,
    "hükümeti": 7618,
    "farkı": 7619,
    "derecede": 7620,
    "birleşik": 7621,
    "col": 7622,
    "hizmetler": 7623,
    "seven": 7624,
    "harekete": 7625,
    "twit": 7626,
    "buyur": 7627,
    "##şten": 7628,
    "rahmet": 7629,
    "kalacak": 7630,
    "dolarlık": 7631,
    "merkezinde": 7632,
    "##iyorsunuz": 7633,
    "günah": 7634,
    "kusur": 7635,
    "##ebilmek": 7636,
    "i̇p": 7637,
    "zorlu": 7638,
    "hayatın": 7639,
    "uygulamaları": 7640,
    "tamir": 7641,
    "iphone": 7642,
    "i̇t": 7643,
    "sivas": 7644,
    "gittik": 7645,
    "londra": 7646,
    "##sul": 7647,
    "ört": 7648,
    "belge": 7649,
    "topra": 7650,
    "56": 7651,
    "##imini": 7652,
    "jandarma": 7653,
    "barındır": 7654,
    "numarası": 7655,
    "hastalığı": 7656,
    "zorluk": 7657,
    "##mız": 7658,
    "nö": 7659,
    "gayret": 7660,
    "##ash": 7661,
    "sekiz": 7662,
    "som": 7663,
    "bulgar": 7664,
    "play": 7665,
    "annesi": 7666,
    "çekici": 7667,
    "gerçekleşen": 7668,
    "gözük": 7669,
    "çalışmalarını": 7670,
    "özgü": 7671,
    "##lemesi": 7672,
    "##lent": 7673,
    "##barı": 7674,
    "perş": 7675,
    "bakanlık": 7676,
    "malzemeleri": 7677,
    "##usuf": 7678,
    "kriter": 7679,
    "konuyu": 7680,
    "senden": 7681,
    "başlamış": 7682,
    "istemiyorum": 7683,
    "aşık": 7684,
    "fatura": 7685,
    "yolculu": 7686,
    "##tel": 7687,
    "i̇şleri": 7688,
    "şirketin": 7689,
    "##ona": 7690,
    "çatışma": 7691,
    "beda": 7692,
    "hu": 7693,
    "inci": 7694,
    "bayramı": 7695,
    "##edi": 7696,
    "##tıcı": 7697,
    "istediğini": 7698,
    "derken": 7699,
    "tutul": 7700,
    "uğr": 7701,
    "“bu": 7702,
    "yılının": 7703,
    "kutu": 7704,
    "apple": 7705,
    "finansal": 7706,
    "tef": 7707,
    "gerekse": 7708,
    "ahş": 7709,
    "aslan": 7710,
    "kısıt": 7711,
    "adresi": 7712,
    "ağr": 7713,
    "##ral": 7714,
    "kolaylaştır": 7715,
    "##stan": 7716,
    "emre": 7717,
    "bunlara": 7718,
    "##ýþ": 7719,
    "kemik": 7720,
    "keyifli": 7721,
    "sınırlı": 7722,
    "sanal": 7723,
    "olunca": 7724,
    "evinde": 7725,
    "rüzgar": 7726,
    "##ây": 7727,
    "kuran": 7728,
    "##diğimi": 7729,
    "##uzu": 7730,
    "alması": 7731,
    "aklı": 7732,
    "erzurum": 7733,
    "mantık": 7734,
    "market": 7735,
    "##val": 7736,
    "##ane": 7737,
    "duruyor": 7738,
    "yusuf": 7739,
    "hariç": 7740,
    "##ie": 7741,
    "bugünkü": 7742,
    "konseyi": 7743,
    "##11": 7744,
    "pamuk": 7745,
    "##ğe": 7746,
    "dola": 7747,
    "##bbi": 7748,
    "telek": 7749,
    "turist": 7750,
    "##ump": 7751,
    "##talyan": 7752,
    "64": 7753,
    "liste": 7754,
    "##ilip": 7755,
    "##ektif": 7756,
    "##ft": 7757,
    "verimli": 7758,
    "düşüş": 7759,
    "bekleniyor": 7760,
    "olmaması": 7761,
    "##liam": 7762,
    "##mediğini": 7763,
    "i̇d": 7764,
    "muhalefet": 7765,
    "mağdur": 7766,
    "tüketic": 7767,
    "verdim": 7768,
    "pis": 7769,
    "lak": 7770,
    "plastik": 7771,
    "##mamak": 7772,
    "uygulanan": 7773,
    "etiket": 7774,
    "seviyorum": 7775,
    "##asız": 7776,
    "kimin": 7777,
    "57": 7778,
    "koz": 7779,
    "çabuk": 7780,
    "cesaret": 7781,
    "##yiz": 7782,
    "garant": 7783,
    "gelmesi": 7784,
    "efsan": 7785,
    "olama": 7786,
    "bizimle": 7787,
    "önemi": 7788,
    "federasyonu": 7789,
    "yapmayı": 7790,
    "##elle": 7791,
    "##ülüyor": 7792,
    "bağımlı": 7793,
    "yeterince": 7794,
    "psikolojik": 7795,
    "eminim": 7796,
    "gelince": 7797,
    "yılları": 7798,
    "perşembe": 7799,
    "lise": 7800,
    "vade": 7801,
    "sunulan": 7802,
    "##suzluk": 7803,
    "gemi": 7804,
    "##lıyorum": 7805,
    "sunul": 7806,
    "çizgi": 7807,
    "büyükel": 7808,
    "##uman": 7809,
    "2019": 7810,
    "orhan": 7811,
    "inanç": 7812,
    "çekim": 7813,
    "sürpriz": 7814,
    "##elerek": 7815,
    "yoğ": 7816,
    "i̇nşaat": 7817,
    "istifa": 7818,
    "##landığını": 7819,
    "yapın": 7820,
    "sm": 7821,
    "ettiler": 7822,
    "muhaseb": 7823,
    "traf": 7824,
    "##sy": 7825,
    "##oo": 7826,
    "hakkındaki": 7827,
    "çalışmaya": 7828,
    "sesi": 7829,
    "yönel": 7830,
    "##bileceğiniz": 7831,
    "##lamayı": 7832,
    "harf": 7833,
    "edilmektedir": 7834,
    "kanat": 7835,
    "##ğının": 7836,
    "yaprak": 7837,
    "mülk": 7838,
    "altını": 7839,
    "tanr": 7840,
    "i̇spanya": 7841,
    "twitter": 7842,
    "olmaktan": 7843,
    "##uc": 7844,
    "##lus": 7845,
    "gördü": 7846,
    "oyunun": 7847,
    "garip": 7848,
    "çalışır": 7849,
    "görevl": 7850,
    "festivali": 7851,
    "kendinizi": 7852,
    "ahşap": 7853,
    "gözden": 7854,
    "yapması": 7855,
    "bulan": 7856,
    "##mr": 7857,
    "hükümetin": 7858,
    "baban": 7859,
    "yolları": 7860,
    "##çu": 7861,
    "geriye": 7862,
    "ust": 7863,
    "http": 7864,
    "öldü": 7865,
    "kaymakam": 7866,
    "suretiyle": 7867,
    "##madım": 7868,
    "ücreti": 7869,
    "anket": 7870,
    "sakat": 7871,
    "metrek": 7872,
    "bulabilirsiniz": 7873,
    "buradaki": 7874,
    "cema": 7875,
    "kur’": 7876,
    "##isiz": 7877,
    "nez": 7878,
    "zan": 7879,
    "beklenen": 7880,
    "inf": 7881,
    "mevcuttur": 7882,
    "star": 7883,
    "kararlı": 7884,
    "##dd": 7885,
    "olurdu": 7886,
    "##malıyız": 7887,
    "akın": 7888,
    "bülent": 7889,
    "geride": 7890,
    "51": 7891,
    "##jan": 7892,
    "bulur": 7893,
    "##leye": 7894,
    "aşkın": 7895,
    "bedava": 7896,
    "formu": 7897,
    "##ph": 7898,
    "##unuzu": 7899,
    "anında": 7900,
    "evine": 7901,
    "üstü": 7902,
    "250": 7903,
    "projeler": 7904,
    "isterim": 7905,
    "ortada": 7906,
    "oğlum": 7907,
    "erişim": 7908,
    "grafik": 7909,
    "kalkınma": 7910,
    "gündüz": 7911,
    "çök": 7912,
    "deli": 7913,
    "vadeli": 7914,
    "sön": 7915,
    "sergil": 7916,
    "##mut": 7917,
    "kapak": 7918,
    "##iyorsun": 7919,
    "fas": 7920,
    "nükle": 7921,
    "verilecek": 7922,
    "##bileceğini": 7923,
    "bulunmak": 7924,
    "##paz": 7925,
    "mesle": 7926,
    "##tifak": 7927,
    "##ts": 7928,
    "tir": 7929,
    "günleri": 7930,
    "alama": 7931,
    "musunuz": 7932,
    "çıl": 7933,
    "köt": 7934,
    "alabilir": 7935,
    "##larınızın": 7936,
    "başarısız": 7937,
    "miktarda": 7938,
    "##esto": 7939,
    "bisiklet": 7940,
    "muhtemelen": 7941,
    "anayas": 7942,
    "biliyoruz": 7943,
    "faydalı": 7944,
    "kullanılması": 7945,
    "##tayız": 7946,
    "stres": 7947,
    "##oft": 7948,
    "eme": 7949,
    "hatt": 7950,
    "siyasal": 7951,
    "etmez": 7952,
    "cal": 7953,
    "yapılıyor": 7954,
    "açtı": 7955,
    "porno": 7956,
    "giyim": 7957,
    "“s": 7958,
    "blok": 7959,
    "açıklaması": 7960,
    "evin": 7961,
    "çağdaş": 7962,
    "düzenlediği": 7963,
    "emlak": 7964,
    "lam": 7965,
    "kalıp": 7966,
    "disiplin": 7967,
    "##yeni": 7968,
    "i̇letişim": 7969,
    "istis": 7970,
    "tıpkı": 7971,
    "my": 7972,
    "olduğunda": 7973,
    "hepimiz": 7974,
    "çoğunluk": 7975,
    "itha": 7976,
    "hid": 7977,
    "192": 7978,
    "geldiğinde": 7979,
    "zehir": 7980,
    "yumuşak": 7981,
    "sizleri": 7982,
    "ente": 7983,
    "isteme": 7984,
    "montaj": 7985,
    "##mali": 7986,
    "paha": 7987,
    "aa": 7988,
    "alev": 7989,
    "ayet": 7990,
    "telekom": 7991,
    "##red": 7992,
    "konfor": 7993,
    "##içi": 7994,
    "maliye": 7995,
    "ag": 7996,
    "güler": 7997,
    "ceb": 7998,
    "harek": 7999,
    "sanıyor": 8000,
    "ahlak": 8001,
    "görevlendir": 8002,
    "ori": 8003,
    "işlev": 8004,
    "caddesi": 8005,
    "galibiyet": 8006,
    "taraftan": 8007,
    "yıla": 8008,
    "oyunlar": 8009,
    "şahıs": 8010,
    "öğrenmek": 8011,
    "üm": 8012,
    "hil": 8013,
    "bulunması": 8014,
    "olaylar": 8015,
    "##yim": 8016,
    "vel": 8017,
    "i̇talyan": 8018,
    "arkasında": 8019,
    "hazine": 8020,
    "yönde": 8021,
    "devamı": 8022,
    "fe": 8023,
    "gelişme": 8024,
    "masraf": 8025,
    "temsilcisi": 8026,
    "raf": 8027,
    "bitki": 8028,
    "öğrencileri": 8029,
    "haftada": 8030,
    "##azı": 8031,
    "öp": 8032,
    "kamuoy": 8033,
    "toplantısında": 8034,
    "kodu": 8035,
    "yüzlerce": 8036,
    "nereye": 8037,
    "koleksiyon": 8038,
    "##imp": 8039,
    "dergisi": 8040,
    "rekor": 8041,
    "pilot": 8042,
    "uydu": 8043,
    "hindistan": 8044,
    "##diven": 8045,
    "teker": 8046,
    "denizli": 8047,
    "##i̇ş": 8048,
    "kabil": 8049,
    "##ow": 8050,
    "kaydı": 8051,
    "göstermek": 8052,
    "sunum": 8053,
    "yurtdış": 8054,
    "nereden": 8055,
    "macer": 8056,
    "haş": 8057,
    "üstlen": 8058,
    "yil": 8059,
    "##sever": 8060,
    "##ılarak": 8061,
    "hayırlı": 8062,
    "içinden": 8063,
    "tuva": 8064,
    "kişiyi": 8065,
    "saati": 8066,
    "pencer": 8067,
    "tarihinden": 8068,
    "suçlu": 8069,
    "seçimi": 8070,
    "##lâm": 8071,
    "göst": 8072,
    "##leyin": 8073,
    "lanet": 8074,
    "iyileştir": 8075,
    "##lerimi": 8076,
    "##yak": 8077,
    "##amızda": 8078,
    "##fed": 8079,
    "donanım": 8080,
    "tarifi": 8081,
    "aksine": 8082,
    "full": 8083,
    "azer": 8084,
    "etmem": 8085,
    "çır": 8086,
    "atöl": 8087,
    "olduğumu": 8088,
    "191": 8089,
    "unutul": 8090,
    "bahçeli": 8091,
    "çuk": 8092,
    "netic": 8093,
    "dayanıklı": 8094,
    "çıkıp": 8095,
    "##liyorum": 8096,
    "arayan": 8097,
    "forma": 8098,
    "arıyor": 8099,
    "hastalıkları": 8100,
    "mevsim": 8101,
    "şehri": 8102,
    "eskiden": 8103,
    "hast": 8104,
    "sakarya": 8105,
    "##rist": 8106,
    "bahsed": 8107,
    "##diğinden": 8108,
    "doktora": 8109,
    "ceph": 8110,
    "##lanmaktadır": 8111,
    "sisteminin": 8112,
    "##ciğer": 8113,
    "şanlı": 8114,
    "bacak": 8115,
    "havaalan": 8116,
    "##ğla": 8117,
    "delik": 8118,
    "bakar": 8119,
    "eğlence": 8120,
    "bıçak": 8121,
    "kaynakları": 8122,
    "##bahar": 8123,
    "akış": 8124,
    "##lıktan": 8125,
    "ederiz": 8126,
    "##kil": 8127,
    "komşu": 8128,
    "bayanlar": 8129,
    "potansiyel": 8130,
    "süreçte": 8131,
    "iletiş": 8132,
    "##beden": 8133,
    "randev": 8134,
    "##ste": 8135,
    "##iti": 8136,
    "coşk": 8137,
    "akses": 8138,
    "santr": 8139,
    "nün": 8140,
    "63": 8141,
    "olmasa": 8142,
    "59": 8143,
    "dürüst": 8144,
    "kendisinin": 8145,
    "ömr": 8146,
    "##tiğim": 8147,
    "##slan": 8148,
    "icin": 8149,
    "##bilmektedir": 8150,
    "nükleer": 8151,
    "başsa": 8152,
    "##cın": 8153,
    "ömür": 8154,
    "duygusal": 8155,
    "bölün": 8156,
    "kullanıyor": 8157,
    "canlandır": 8158,
    "japon": 8159,
    "cor": 8160,
    "nu": 8161,
    "topu": 8162,
    "tey": 8163,
    "alanlarda": 8164,
    "yemeği": 8165,
    "önder": 8166,
    "##ington": 8167,
    "anlatıyor": 8168,
    "sürecinde": 8169,
    "kazana": 8170,
    "reform": 8171,
    "bla": 8172,
    "##ben": 8173,
    "aptal": 8174,
    "##und": 8175,
    "kek": 8176,
    "dairesi": 8177,
    "mana": 8178,
    "ürünlerin": 8179,
    "##ladım": 8180,
    "ci": 8181,
    "##maktır": 8182,
    "katıldığı": 8183,
    "girer": 8184,
    "mümkündür": 8185,
    "çekmek": 8186,
    "programları": 8187,
    "olmanın": 8188,
    "mol": 8189,
    "bahçe": 8190,
    "caz": 8191,
    "##giz": 8192,
    "saatlerinde": 8193,
    "miyim": 8194,
    "amerikalı": 8195,
    "bulunduğunu": 8196,
    "ven": 8197,
    "kg": 8198,
    "terc": 8199,
    "kilometre": 8200,
    "##ris": 8201,
    "sürüyor": 8202,
    "prim": 8203,
    "peyn": 8204,
    "dedik": 8205,
    "600": 8206,
    "çekir": 8207,
    "meyv": 8208,
    "kk": 8209,
    "sektörü": 8210,
    "plak": 8211,
    "diyorum": 8212,
    "trabzonspor": 8213,
    "sizden": 8214,
    "öf": 8215,
    "çekiyor": 8216,
    "org": 8217,
    "etmeyi": 8218,
    "##medim": 8219,
    "japonya": 8220,
    "##usuz": 8221,
    "oluşturan": 8222,
    "yüce": 8223,
    "engelli": 8224,
    "değişikliği": 8225,
    "işyer": 8226,
    "##uyla": 8227,
    "vizyon": 8228,
    "i̇şlem": 8229,
    "##örü": 8230,
    "ış": 8231,
    "aydınlat": 8232,
    "##elal": 8233,
    "yuvar": 8234,
    "##mini": 8235,
    "üretilen": 8236,
    "silin": 8237,
    "toplantıda": 8238,
    "i̇le": 8239,
    "tabak": 8240,
    "anlar": 8241,
    "yağı": 8242,
    "efend": 8243,
    "üyeler": 8244,
    "devir": 8245,
    "sözler": 8246,
    "geçiyor": 8247,
    "kullanabil": 8248,
    "taşıyor": 8249,
    "bileti": 8250,
    "fit": 8251,
    "biliyorsun": 8252,
    "sorular": 8253,
    "99": 8254,
    "kalmak": 8255,
    "imz": 8256,
    "eyalet": 8257,
    "alıcı": 8258,
    "dosy": 8259,
    "tekst": 8260,
    "##ala": 8261,
    "uzan": 8262,
    "düşündüğ": 8263,
    "len": 8264,
    "bizden": 8265,
    "ülkelerin": 8266,
    "satışa": 8267,
    "hiss": 8268,
    "çöp": 8269,
    "işletme": 8270,
    "sabır": 8271,
    "##eyerek": 8272,
    "gor": 8273,
    "##lamaları": 8274,
    "##larınıza": 8275,
    "##sis": 8276,
    "şimdiye": 8277,
    "satılık": 8278,
    "boru": 8279,
    "edilerek": 8280,
    "ülkemizin": 8281,
    "##çek": 8282,
    "##emem": 8283,
    "olağanüstü": 8284,
    "##ştım": 8285,
    "düzgün": 8286,
    "dondur": 8287,
    "##eğine": 8288,
    "şeref": 8289,
    "ulaşı": 8290,
    "##idi": 8291,
    "şö": 8292,
    "takımın": 8293,
    "gönüllü": 8294,
    "##mus": 8295,
    "döner": 8296,
    "olmaları": 8297,
    "##lığından": 8298,
    "paylaştı": 8299,
    "i̇mam": 8300,
    "katil": 8301,
    "tüp": 8302,
    "sinyal": 8303,
    "dünyadaki": 8304,
    "fırsatı": 8305,
    "tavsiy": 8306,
    "olabilecek": 8307,
    "##likleri": 8308,
    "arasına": 8309,
    "soruları": 8310,
    "gayrim": 8311,
    "yargılan": 8312,
    "adıyla": 8313,
    "##kim": 8314,
    "bizlere": 8315,
    "tıbbi": 8316,
    "kartal": 8317,
    "dönemin": 8318,
    "köprü": 8319,
    "memnuniyet": 8320,
    "##ök": 8321,
    "gam": 8322,
    "inceleme": 8323,
    "tedar": 8324,
    "tıkan": 8325,
    "##medik": 8326,
    "##lerdeki": 8327,
    "aksi": 8328,
    "sınavı": 8329,
    "versiyon": 8330,
    "özelleştir": 8331,
    "süreli": 8332,
    "sakın": 8333,
    "döndü": 8334,
    "dışına": 8335,
    "##lon": 8336,
    "##yaspor": 8337,
    "##masi": 8338,
    "hamil": 8339,
    "seksi": 8340,
    "i̇lg": 8341,
    "##ci̇": 8342,
    "##80": 8343,
    "paral": 8344,
    "tutum": 8345,
    "bizde": 8346,
    "akar": 8347,
    "gidece": 8348,
    "i̇r": 8349,
    "oradan": 8350,
    "skor": 8351,
    "sizinle": 8352,
    "çocuklara": 8353,
    "arasından": 8354,
    "##tez": 8355,
    "##ciz": 8356,
    "##ört": 8357,
    "ulaşmak": 8358,
    "kaybetti": 8359,
    "##tikten": 8360,
    "istikrar": 8361,
    "enstitüsü": 8362,
    "ayakta": 8363,
    "listesi": 8364,
    "defter": 8365,
    "sy": 8366,
    "yorgun": 8367,
    "atak": 8368,
    "okula": 8369,
    "örneği": 8370,
    "##’tan": 8371,
    "##ğım": 8372,
    "payı": 8373,
    "gerekirse": 8374,
    "enfeksiyon": 8375,
    "patron": 8376,
    "söylemiş": 8377,
    "kole": 8378,
    "digit": 8379,
    "vası": 8380,
    "bok": 8381,
    "95": 8382,
    "hotel": 8383,
    "tavuk": 8384,
    "çatı": 8385,
    "mağaz": 8386,
    "ves": 8387,
    "inti": 8388,
    "sanık": 8389,
    "##malarını": 8390,
    "karşılıklı": 8391,
    "gördüğü": 8392,
    "##yaz": 8393,
    "şifr": 8394,
    "##aca": 8395,
    "robot": 8396,
    "##oper": 8397,
    "durumun": 8398,
    "açıkça": 8399,
    "oyuncak": 8400,
    "karbon": 8401,
    "gezi": 8402,
    "konular": 8403,
    "alana": 8404,
    "bozul": 8405,
    "##ersen": 8406,
    "##caya": 8407,
    "vergisi": 8408,
    "bakır": 8409,
    "olgun": 8410,
    "tüketim": 8411,
    "protesto": 8412,
    "başladım": 8413,
    "aracın": 8414,
    "koyu": 8415,
    "havalimanı": 8416,
    "apart": 8417,
    "rengi": 8418,
    "kontrolü": 8419,
    "miktarı": 8420,
    "olimp": 8421,
    "olmuştu": 8422,
    "##nav": 8423,
    "nar": 8424,
    "66": 8425,
    "85": 8426,
    "verebilir": 8427,
    "##gül": 8428,
    "stratejik": 8429,
    "sandal": 8430,
    "hepsini": 8431,
    "##rib": 8432,
    "kullanıla": 8433,
    "char": 8434,
    "by": 8435,
    "canım": 8436,
    "edeceğiz": 8437,
    "bölgeye": 8438,
    "##ai": 8439,
    "şekli": 8440,
    "##riyet": 8441,
    "gram": 8442,
    "##şen": 8443,
    "yemin": 8444,
    "hakkını": 8445,
    "ırk": 8446,
    "gelerek": 8447,
    "kurmak": 8448,
    "##otik": 8449,
    "##ee": 8450,
    "ekipman": 8451,
    "kullanılabilir": 8452,
    "dekorasyon": 8453,
    "teşkilat": 8454,
    "i̇stanbul’da": 8455,
    "##ebiliyor": 8456,
    "kuvvetleri": 8457,
    "olmuyor": 8458,
    "rabb": 8459,
    "marmara": 8460,
    "inanıyor": 8461,
    "nı": 8462,
    "##led": 8463,
    "sayısının": 8464,
    "mekaniz": 8465,
    "cumhurbaşkanlığı": 8466,
    "tedarik": 8467,
    "##gn": 8468,
    "stok": 8469,
    "ettikleri": 8470,
    "##emizde": 8471,
    "kurtuluş": 8472,
    "bakımı": 8473,
    "##rip": 8474,
    "gösteri": 8475,
    "yağış": 8476,
    "adli": 8477,
    "hocam": 8478,
    "tescil": 8479,
    "asit": 8480,
    "1999": 8481,
    "seçenekleri": 8482,
    "hek": 8483,
    "bebeğ": 8484,
    "çiğ": 8485,
    "seyret": 8486,
    "##gi̇": 8487,
    "yayımlanan": 8488,
    "hur": 8489,
    "yaralı": 8490,
    "üzgün": 8491,
    "##ýl": 8492,
    "bilmek": 8493,
    "beslen": 8494,
    "hele": 8495,
    "yerleri": 8496,
    "kutlu": 8497,
    "gezeg": 8498,
    "faydalan": 8499,
    "masaj": 8500,
    "başkanlık": 8501,
    "##lup": 8502,
    "bekleyen": 8503,
    "zeki": 8504,
    "firmalar": 8505,
    "aksesuar": 8506,
    "keyf": 8507,
    "i̇lişk": 8508,
    "doku": 8509,
    "edici": 8510,
    "dağıtım": 8511,
    "kaşı": 8512,
    "sn": 8513,
    "##usunun": 8514,
    "sebeple": 8515,
    "##ým": 8516,
    "getirdiği": 8517,
    "projenin": 8518,
    "ras": 8519,
    "##ende": 8520,
    "koyun": 8521,
    "67": 8522,
    "lüks": 8523,
    "saçma": 8524,
    "##ildiğini": 8525,
    "##isindeki": 8526,
    "görüyoruz": 8527,
    "bulma": 8528,
    "yakıt": 8529,
    "##zersiz": 8530,
    "şartları": 8531,
    "sıradan": 8532,
    "estetik": 8533,
    "satışı": 8534,
    "ısrar": 8535,
    "##etici": 8536,
    "açan": 8537,
    "##yoruz": 8538,
    "##ydi": 8539,
    "dokuz": 8540,
    "şara": 8541,
    "konuyla": 8542,
    "yapıyoruz": 8543,
    "yürürlüğe": 8544,
    "bölgesel": 8545,
    "##ami": 8546,
    "hareketi": 8547,
    "gelişen": 8548,
    "şair": 8549,
    "##’li": 8550,
    "zamanla": 8551,
    "taze": 8552,
    "##landırma": 8553,
    "yolunu": 8554,
    "icra": 8555,
    "olabilirsiniz": 8556,
    "##dv": 8557,
    "yapmanız": 8558,
    "redde": 8559,
    "ürünün": 8560,
    "olduğunun": 8561,
    "yazılmış": 8562,
    "##meliyiz": 8563,
    "idari": 8564,
    "ikram": 8565,
    "sembol": 8566,
    "egzersiz": 8567,
    "duyarlı": 8568,
    "laboratu": 8569,
    "oranda": 8570,
    "işini": 8571,
    "##iliğini": 8572,
    "bakanlar": 8573,
    "##ates": 8574,
    "çıkması": 8575,
    "paralel": 8576,
    "yılına": 8577,
    "##haf": 8578,
    "sizlerle": 8579,
    "pahalı": 8580,
    "trump": 8581,
    "öğrencilere": 8582,
    "dostum": 8583,
    "mc": 8584,
    "##stagram": 8585,
    "kaydeden": 8586,
    "##hisar": 8587,
    "yaşı": 8588,
    "hel": 8589,
    "müş": 8590,
    "karab": 8591,
    "kavga": 8592,
    "kula": 8593,
    "şok": 8594,
    "çıkma": 8595,
    "yazıyor": 8596,
    "kayıtlı": 8597,
    "air": 8598,
    "bıraktı": 8599,
    "##laştık": 8600,
    "nato": 8601,
    "öykü": 8602,
    "##unç": 8603,
    "dolara": 8604,
    "piyasaya": 8605,
    "tarafı": 8606,
    "##mamı": 8607,
    "oğl": 8608,
    "çukur": 8609,
    "göstermektedir": 8610,
    "aldık": 8611,
    "ray": 8612,
    "delil": 8613,
    "sahte": 8614,
    "##varı": 8615,
    "##balaj": 8616,
    "##gari": 8617,
    "trilyon": 8618,
    "katılımcı": 8619,
    "hastane": 8620,
    "abi": 8621,
    "##çın": 8622,
    "rady": 8623,
    "lek": 8624,
    "##mıştım": 8625,
    "sec": 8626,
    "makale": 8627,
    "burun": 8628,
    "görevli": 8629,
    "diyal": 8630,
    "aran": 8631,
    "holding": 8632,
    "##akk": 8633,
    "şubesi": 8634,
    "##ang": 8635,
    "baştan": 8636,
    "pom": 8637,
    "denir": 8638,
    "katkıda": 8639,
    "baraj": 8640,
    "##ât": 8641,
    "direktörü": 8642,
    "vatandaşlar": 8643,
    "##enizi": 8644,
    "burs": 8645,
    "müzesi": 8646,
    "araçları": 8647,
    "altyapı": 8648,
    "görevini": 8649,
    "iba": 8650,
    "görünce": 8651,
    "olsaydı": 8652,
    "gelmiştir": 8653,
    "ölen": 8654,
    "izleyi": 8655,
    "kıyı": 8656,
    "dünyası": 8657,
    "kapsamlı": 8658,
    "mühendisliği": 8659,
    "şimdiden": 8660,
    "##sının": 8661,
    "##leyip": 8662,
    "parayı": 8663,
    "ikna": 8664,
    "melek": 8665,
    "çav": 8666,
    "##larsa": 8667,
    "komik": 8668,
    "##th": 8669,
    "müzaker": 8670,
    "##unus": 8671,
    "dünyayı": 8672,
    "çiko": 8673,
    "bi̇r": 8674,
    "yetişkin": 8675,
    "sağlanması": 8676,
    "zincir": 8677,
    "brez": 8678,
    "bran": 8679,
    "ambalaj": 8680,
    "##manda": 8681,
    "##aç": 8682,
    "genişlet": 8683,
    "elinden": 8684,
    "dörd": 8685,
    "öğrenildi": 8686,
    "oluşur": 8687,
    "herkesi": 8688,
    "##’nden": 8689,
    "tebrik": 8690,
    "değişken": 8691,
    "almıştır": 8692,
    "duran": 8693,
    "ikisi": 8694,
    "lif": 8695,
    "şeyden": 8696,
    "çıktığı": 8697,
    "yoksul": 8698,
    "çevres": 8699,
    "feth": 8700,
    "ikin": 8701,
    "zamandır": 8702,
    "ortadoğu": 8703,
    "eline": 8704,
    "1000": 8705,
    "##soy": 8706,
    "##imet": 8707,
    "hani": 8708,
    "ayrıntılı": 8709,
    "veriler": 8710,
    "itibarı": 8711,
    "imf": 8712,
    "i̇nsanlar": 8713,
    "allah’ın": 8714,
    "riv": 8715,
    "mutfa": 8716,
    "i̇mparator": 8717,
    "hattı": 8718,
    "çama": 8719,
    "utan": 8720,
    "başladığı": 8721,
    "vefat": 8722,
    "eşlik": 8723,
    "sınırları": 8724,
    "görülür": 8725,
    "oluşum": 8726,
    "hazırlan": 8727,
    "i̇sa": 8728,
    "geleceği": 8729,
    "62": 8730,
    "saatleri": 8731,
    "sistemin": 8732,
    "profil": 8733,
    "##tra": 8734,
    "##ight": 8735,
    "##ecekler": 8736,
    "##wor": 8737,
    "ermeni": 8738,
    "##oter": 8739,
    "dom": 8740,
    "##duktan": 8741,
    "arkadaşları": 8742,
    "sunduğu": 8743,
    "görmüş": 8744,
    "hor": 8745,
    "##raç": 8746,
    "yıkama": 8747,
    "dışındaki": 8748,
    "şirketleri": 8749,
    "bizzat": 8750,
    "##espor": 8751,
    "konuya": 8752,
    "##enkul": 8753,
    "ehl": 8754,
    "glo": 8755,
    "alırken": 8756,
    "##malısınız": 8757,
    "rahatlıkla": 8758,
    "kadını": 8759,
    "muhtar": 8760,
    "##halde": 8761,
    "##utma": 8762,
    "sonuçta": 8763,
    "##sün": 8764,
    "kedi": 8765,
    "öv": 8766,
    "yapılmaktadır": 8767,
    "kalabalık": 8768,
    "mevzuat": 8769,
    "kongre": 8770,
    "kaybı": 8771,
    "öğrenme": 8772,
    "danışmanlık": 8773,
    "iman": 8774,
    "deplas": 8775,
    "gelmektedir": 8776,
    "tamamlan": 8777,
    "ülkeye": 8778,
    "##mec": 8779,
    "boşan": 8780,
    "##bistan": 8781,
    "yazan": 8782,
    "kazanmak": 8783,
    "taahh": 8784,
    "kaybeden": 8785,
    "##ive": 8786,
    "##urk": 8787,
    "teknolojisi": 8788,
    "kader": 8789,
    "manevi": 8790,
    "tanık": 8791,
    "devreye": 8792,
    "çalışmalarına": 8793,
    "doğur": 8794,
    "plaj": 8795,
    "çamaş": 8796,
    "brezilya": 8797,
    "kaça": 8798,
    "gerçeği": 8799,
    "açıldı": 8800,
    "uyarınca": 8801,
    "yapacağı": 8802,
    "başbakanı": 8803,
    "kendime": 8804,
    "kurş": 8805,
    "kaldığı": 8806,
    "keç": 8807,
    "plana": 8808,
    "##ılmaya": 8809,
    "72": 8810,
    "denem": 8811,
    "metro": 8812,
    "##ecik": 8813,
    "##çılık": 8814,
    "altındaki": 8815,
    "##elikle": 8816,
    "82": 8817,
    "fed": 8818,
    "geldik": 8819,
    "##manıza": 8820,
    "##ese": 8821,
    "karşımıza": 8822,
    "olayın": 8823,
    "##ülmüş": 8824,
    "##ılmak": 8825,
    "micros": 8826,
    "hâl": 8827,
    "kullanıcılar": 8828,
    "gazeteci": 8829,
    "madal": 8830,
    "i̇slâm": 8831,
    "doğalgaz": 8832,
    "##lit": 8833,
    "kıyas": 8834,
    "mos": 8835,
    "sermay": 8836,
    "restoran": 8837,
    "##ersiniz": 8838,
    "karşılığında": 8839,
    "anlamlı": 8840,
    "leh": 8841,
    "hukuki": 8842,
    "çim": 8843,
    "başkenti": 8844,
    "##30": 8845,
    "##liğiyle": 8846,
    "aylarında": 8847,
    "gösterdiği": 8848,
    "kendileri": 8849,
    "afgan": 8850,
    "##imizle": 8851,
    "devre": 8852,
    "##mekle": 8853,
    "##eyn": 8854,
    "##mesin": 8855,
    "##ula": 8856,
    "sesli": 8857,
    "arıza": 8858,
    "kalitesi": 8859,
    "dü": 8860,
    "çanta": 8861,
    "horm": 8862,
    "zihin": 8863,
    "tüketici": 8864,
    "esen": 8865,
    "herhalde": 8866,
    "mp3": 8867,
    "##tip": 8868,
    "krem": 8869,
    "orijinal": 8870,
    "yaptığım": 8871,
    "wash": 8872,
    "##esin": 8873,
    "fikr": 8874,
    "değişen": 8875,
    "akra": 8876,
    "tank": 8877,
    "##bert": 8878,
    "##tap": 8879,
    "eşliğinde": 8880,
    "##madığını": 8881,
    "anlata": 8882,
    "vurguladı": 8883,
    "haftalık": 8884,
    "##we": 8885,
    "yöntemleri": 8886,
    "türkiye’ye": 8887,
    "##melisiniz": 8888,
    "çetin": 8889,
    "kktc": 8890,
    "pozit": 8891,
    "maçın": 8892,
    "korunması": 8893,
    "asgari": 8894,
    "onlardan": 8895,
    "çalıştık": 8896,
    "tekstil": 8897,
    "varmış": 8898,
    "dediği": 8899,
    "etkileri": 8900,
    "parlamen": 8901,
    "koruyucu": 8902,
    "tarafında": 8903,
    "taksit": 8904,
    "##uf": 8905,
    "##arlar": 8906,
    "evrak": 8907,
    "tarzı": 8908,
    "yakında": 8909,
    "resimleri": 8910,
    "kısmını": 8911,
    "balkan": 8912,
    "##umuzun": 8913,
    "iv": 8914,
    "karn": 8915,
    "kullanabilirsiniz": 8916,
    "##ich": 8917,
    "kaba": 8918,
    "şartı": 8919,
    "yansıt": 8920,
    "mater": 8921,
    "ceh": 8922,
    "istasyon": 8923,
    "tablet": 8924,
    "başından": 8925,
    "akım": 8926,
    "denilen": 8927,
    "yerleşim": 8928,
    "işlemler": 8929,
    "amir": 8930,
    "kütüphan": 8931,
    "gerçekleşti": 8932,
    "##emiyor": 8933,
    "##emiyorum": 8934,
    "gecesi": 8935,
    "yükümlül": 8936,
    "göreve": 8937,
    "bölgenin": 8938,
    "manisa": 8939,
    "nesn": 8940,
    "bag": 8941,
    "düşündüm": 8942,
    "gayrimenkul": 8943,
    "makina": 8944,
    "vermesi": 8945,
    "61": 8946,
    "maddesinin": 8947,
    "ortasında": 8948,
    "dersi": 8949,
    "çapında": 8950,
    "köken": 8951,
    "##eleriyle": 8952,
    "zamana": 8953,
    "sitesinde": 8954,
    "herşey": 8955,
    "sürük": 8956,
    "uygulamaya": 8957,
    "yalı": 8958,
    "dilerim": 8959,
    "sığın": 8960,
    "kurumlar": 8961,
    "gününde": 8962,
    "zararlı": 8963,
    "etken": 8964,
    "sonradan": 8965,
    "obj": 8966,
    "teknolojik": 8967,
    "fıkr": 8968,
    "gereksin": 8969,
    "verin": 8970,
    "alanına": 8971,
    "120": 8972,
    "sigort": 8973,
    "idare": 8974,
    "##elli": 8975,
    "##layabilirsiniz": 8976,
    "##daroğlu": 8977,
    "olmakla": 8978,
    "bölümde": 8979,
    "##efa": 8980,
    "kitle": 8981,
    "yardımı": 8982,
    "##ml": 8983,
    "gidiş": 8984,
    "yazdığı": 8985,
    "göze": 8986,
    "organiz": 8987,
    "liman": 8988,
    "ked": 8989,
    "68": 8990,
    "lay": 8991,
    "inanılmaz": 8992,
    "türkmen": 8993,
    "doğrusu": 8994,
    "##ştan": 8995,
    "insana": 8996,
    "##ete": 8997,
    "uyu": 8998,
    "dördüncü": 8999,
    "dolandır": 9000,
    "##dıkça": 9001,
    "işık": 9002,
    "medyum": 9003,
    "ziraat": 9004,
    "ilişkileri": 9005,
    "##umuzu": 9006,
    "hitap": 9007,
    "doy": 9008,
    "geçirmek": 9009,
    "yir": 9010,
    "kızın": 9011,
    "##tıkları": 9012,
    "##çilik": 9013,
    "istemez": 9014,
    "kaynağ": 9015,
    "tazminat": 9016,
    "testi": 9017,
    "##dağı": 9018,
    "kırk": 9019,
    "yoluna": 9020,
    "##ny": 9021,
    "iyileş": 9022,
    "mısın": 9023,
    "oynanan": 9024,
    "muy": 9025,
    "##urfa": 9026,
    "suyun": 9027,
    "hayatına": 9028,
    "alımı": 9029,
    "##linik": 9030,
    "bağlan": 9031,
    "özer": 9032,
    "referan": 9033,
    "mühendislik": 9034,
    "sünnet": 9035,
    "bilgilere": 9036,
    "##burg": 9037,
    "washington": 9038,
    "yüzü": 9039,
    "gran": 9040,
    "fikri": 9041,
    "bulaş": 9042,
    "ülkelerde": 9043,
    "dizisi": 9044,
    "##larý": 9045,
    "kadık": 9046,
    "samsung": 9047,
    "arda": 9048,
    "sekreter": 9049,
    "daima": 9050,
    "staj": 9051,
    "konuşmak": 9052,
    "hamur": 9053,
    "şampiyonası": 9054,
    "desteğ": 9055,
    "hikmet": 9056,
    "yazarı": 9057,
    "kov": 9058,
    "kızlar": 9059,
    "##likler": 9060,
    "sayg": 9061,
    "kurucu": 9062,
    "konulu": 9063,
    "hikây": 9064,
    "geldim": 9065,
    "şeytan": 9066,
    "69": 9067,
    "##birliği": 9068,
    "uzaktan": 9069,
    "gücünü": 9070,
    "kopya": 9071,
    "sunmaktadır": 9072,
    "##aydı": 9073,
    "biber": 9074,
    "gergin": 9075,
    "minik": 9076,
    "sizde": 9077,
    "##io": 9078,
    "aldığını": 9079,
    "nişan": 9080,
    "##gul": 9081,
    "hazret": 9082,
    "hdp": 9083,
    "şarj": 9084,
    "##baycan": 9085,
    "ilçesi": 9086,
    "kurtu": 9087,
    "koku": 9088,
    "sunucu": 9089,
    "##vil": 9090,
    "keşfet": 9091,
    "vas": 9092,
    "wal": 9093,
    "otop": 9094,
    "muhar": 9095,
    "protein": 9096,
    "kısaca": 9097,
    "bardak": 9098,
    "##’la": 9099,
    "yerlere": 9100,
    "##pg": 9101,
    "cemaat": 9102,
    "arnav": 9103,
    "isteyenler": 9104,
    "yüklen": 9105,
    "filmleri": 9106,
    "##ood": 9107,
    "kimseye": 9108,
    "mide": 9109,
    "yavuz": 9110,
    "kardeşim": 9111,
    "merkezine": 9112,
    "bası": 9113,
    "sığ": 9114,
    "##ülecek": 9115,
    "bayra": 9116,
    "##emizin": 9117,
    "çıkardı": 9118,
    "onlarla": 9119,
    "ödey": 9120,
    "konuları": 9121,
    "bedeli": 9122,
    "dinamik": 9123,
    "dedek": 9124,
    "asan": 9125,
    "vurgulayan": 9126,
    "haksız": 9127,
    "tamamı": 9128,
    "##ice": 9129,
    "ifadelerini": 9130,
    "sözleşmesi": 9131,
    "dudak": 9132,
    "konaklama": 9133,
    "sunmak": 9134,
    "chat": 9135,
    "müte": 9136,
    "##rad": 9137,
    "unutmayın": 9138,
    "gre": 9139,
    "evlat": 9140,
    "hacı": 9141,
    "##balı": 9142,
    "##vin": 9143,
    "valisi": 9144,
    "best": 9145,
    "##ýnda": 9146,
    "atmos": 9147,
    "##âm": 9148,
    "##amıyorum": 9149,
    "microsoft": 9150,
    "##esir": 9151,
    "halkının": 9152,
    "ms": 9153,
    "arnavut": 9154,
    "##çısı": 9155,
    "küf": 9156,
    "tarihine": 9157,
    "##ýný": 9158,
    "cumhurbaşkan": 9159,
    "topluluk": 9160,
    "##orit": 9161,
    "yıldan": 9162,
    "cey": 9163,
    "çeyrek": 9164,
    "izlemek": 9165,
    "ukray": 9166,
    "dk": 9167,
    "##lamanın": 9168,
    "fı": 9169,
    "sürdü": 9170,
    "dert": 9171,
    "ağırlık": 9172,
    "cadde": 9173,
    "##ılacak": 9174,
    "##layı": 9175,
    "alg": 9176,
    "yang": 9177,
    "##şek": 9178,
    "##ço": 9179,
    "##rul": 9180,
    "uygulamalar": 9181,
    "##esince": 9182,
    "girmek": 9183,
    "bağlam": 9184,
    "çekin": 9185,
    "sistemine": 9186,
    "istemiyor": 9187,
    "çalıştığı": 9188,
    "buton": 9189,
    "##lemiş": 9190,
    "kast": 9191,
    "şof": 9192,
    "ermen": 9193,
    "suudi": 9194,
    "olmasının": 9195,
    "sep": 9196,
    "kadıköy": 9197,
    "başkent": 9198,
    "beton": 9199,
    "##bas": 9200,
    "olayları": 9201,
    "youtu": 9202,
    "azerbaycan": 9203,
    "komutan": 9204,
    "verilmiş": 9205,
    "bankacılık": 9206,
    "teşkil": 9207,
    "yetki": 9208,
    "bilişim": 9209,
    "kullanılarak": 9210,
    "düzenlenecek": 9211,
    "##dular": 9212,
    "olmazsa": 9213,
    "etrafında": 9214,
    "meb": 9215,
    "76": 9216,
    "##lıyoruz": 9217,
    "karşılığı": 9218,
    "geor": 9219,
    "kemer": 9220,
    "avustur": 9221,
    "teklifi": 9222,
    "araştırmalar": 9223,
    "##bası": 9224,
    "gerekçesiyle": 9225,
    "pozitif": 9226,
    "lı": 9227,
    "organik": 9228,
    "harcama": 9229,
    "kur’an": 9230,
    "herş": 9231,
    "seminer": 9232,
    "tohum": 9233,
    "katk": 9234,
    "edir": 9235,
    "##inizden": 9236,
    "müsabak": 9237,
    "amaçla": 9238,
    "amatör": 9239,
    "mecbur": 9240,
    "omuz": 9241,
    "iletişime": 9242,
    "##ğunu": 9243,
    "ilah": 9244,
    "77": 9245,
    "nakliye": 9246,
    "ret": 9247,
    "talimat": 9248,
    "özgün": 9249,
    "virüs": 9250,
    "muz": 9251,
    "##ılığı": 9252,
    "karşılaştı": 9253,
    "kitabın": 9254,
    "oynayan": 9255,
    "kaşığı": 9256,
    "semt": 9257,
    "kişilere": 9258,
    "vicdan": 9259,
    "max": 9260,
    "aktivit": 9261,
    "i̇nan": 9262,
    "projeleri": 9263,
    "erdem": 9264,
    "saatte": 9265,
    "ajansı": 9266,
    "mum": 9267,
    "##laç": 9268,
    "cümle": 9269,
    "şansı": 9270,
    "değerleri": 9271,
    "i̇lgili": 9272,
    "oluştu": 9273,
    "getiriyor": 9274,
    "hürriyet": 9275,
    "##luğunu": 9276,
    "81": 9277,
    "oğuz": 9278,
    "tuvalet": 9279,
    "yönetici": 9280,
    "kadir": 9281,
    "##ac": 9282,
    "çel": 9283,
    "boyun": 9284,
    "materyal": 9285,
    "planlama": 9286,
    "kep": 9287,
    "##name": 9288,
    "yapılandır": 9289,
    "##indan": 9290,
    "jack": 9291,
    "yazıcı": 9292,
    "caf": 9293,
    "lastik": 9294,
    "niteliğ": 9295,
    "kablo": 9296,
    "instagram": 9297,
    "efendi": 9298,
    "yürütülen": 9299,
    "kosova": 9300,
    "istatistik": 9301,
    "getirir": 9302,
    "gelmez": 9303,
    "medeniyet": 9304,
    "ordusu": 9305,
    "pres": 9306,
    "irti": 9307,
    "keşke": 9308,
    "##dışı": 9309,
    "eli": 9310,
    "istenen": 9311,
    "toptan": 9312,
    "terim": 9313,
    "hesabı": 9314,
    "##türü": 9315,
    "##portaj": 9316,
    "patlama": 9317,
    "rezervasyon": 9318,
    "i̇ndir": 9319,
    "sıcaklık": 9320,
    "faaliyetleri": 9321,
    "yarısı": 9322,
    "tuta": 9323,
    "##cal": 9324,
    "perde": 9325,
    "nihayet": 9326,
    "gözler": 9327,
    "##iğe": 9328,
    "##nn": 9329,
    "demokrat": 9330,
    "bulgaristan": 9331,
    "karşısına": 9332,
    "tesisat": 9333,
    "cezaev": 9334,
    "dükkan": 9335,
    "##dere": 9336,
    "emr": 9337,
    "kardeşi": 9338,
    "rep": 9339,
    "adil": 9340,
    "eng": 9341,
    "##duğunda": 9342,
    "tutmak": 9343,
    "##unuza": 9344,
    "##aa": 9345,
    "##ss": 9346,
    "##cell": 9347,
    "arı": 9348,
    "çıkmak": 9349,
    "##emli": 9350,
    "##hiş": 9351,
    "olanı": 9352,
    "ekr": 9353,
    "##ğeri": 9354,
    "alakalı": 9355,
    "kitapları": 9356,
    "##use": 9357,
    "miras": 9358,
    "##lamıyor": 9359,
    "deneme": 9360,
    "“i̇": 9361,
    "##ümde": 9362,
    "savcı": 9363,
    "röportaj": 9364,
    "referans": 9365,
    "i̇lçesi": 9366,
    "bilimleri": 9367,
    "##luğa": 9368,
    "tüf": 9369,
    "##fez": 9370,
    "korkut": 9371,
    "##şak": 9372,
    "anlatı": 9373,
    "##irt": 9374,
    "imalat": 9375,
    "krizi": 9376,
    "yaşamını": 9377,
    "malzemeler": 9378,
    "yavru": 9379,
    "casino": 9380,
    "birimi": 9381,
    "ayrım": 9382,
    "böy": 9383,
    "esnek": 9384,
    "borc": 9385,
    "olimpiyat": 9386,
    "dönemlerde": 9387,
    "yaralandı": 9388,
    "dor": 9389,
    "##raz": 9390,
    "buğ": 9391,
    "senaryo": 9392,
    "vize": 9393,
    "sad": 9394,
    "alem": 9395,
    "hayatında": 9396,
    "ailenin": 9397,
    "randevu": 9398,
    "i̇çişleri": 9399,
    "mahkum": 9400,
    "ibadet": 9401,
    "##tara": 9402,
    "çavuş": 9403,
    "tavır": 9404,
    "buldum": 9405,
    "ihtiyacım": 9406,
    "büyüt": 9407,
    "merdiven": 9408,
    "eklem": 9409,
    "fın": 9410,
    "harita": 9411,
    "##’ten": 9412,
    "##lüğünü": 9413,
    "ismini": 9414,
    "tutuklu": 9415,
    "ederler": 9416,
    "devamlı": 9417,
    "albay": 9418,
    "kra": 9419,
    "yetkilileri": 9420,
    "sis": 9421,
    "tuhaf": 9422,
    "general": 9423,
    "heykel": 9424,
    "##işe": 9425,
    "işten": 9426,
    "hikaye": 9427,
    "konusundaki": 9428,
    "##masız": 9429,
    "anlamak": 9430,
    "cehenn": 9431,
    "cana": 9432,
    "##önü": 9433,
    "köylü": 9434,
    "başlık": 9435,
    "topla": 9436,
    "göv": 9437,
    "hastaneye": 9438,
    "yukarıdaki": 9439,
    "vatanda": 9440,
    "korkunç": 9441,
    "trak": 9442,
    "araçlar": 9443,
    "geçmişte": 9444,
    "stil": 9445,
    "noktasında": 9446,
    "görünen": 9447,
    "çıkarmak": 9448,
    "we": 9449,
    "denen": 9450,
    "##abilmek": 9451,
    "talebi": 9452,
    "dinlen": 9453,
    "##âlâ": 9454,
    "800": 9455,
    "keskin": 9456,
    "kanada": 9457,
    "##yeri": 9458,
    "##li̇k": 9459,
    "imar": 9460,
    "kılav": 9461,
    "tebliğ": 9462,
    "disk": 9463,
    "ikili": 9464,
    "##dığının": 9465,
    "muhabir": 9466,
    "ate": 9467,
    "adamları": 9468,
    "bırakın": 9469,
    "ekst": 9470,
    "ihlal": 9471,
    "loj": 9472,
    "kaptan": 9473,
    "sinan": 9474,
    "vatandaşların": 9475,
    "odaları": 9476,
    "##ned": 9477,
    "kerim": 9478,
    "girecek": 9479,
    "direkt": 9480,
    "politikası": 9481,
    "kaplama": 9482,
    "##tıktan": 9483,
    "aklım": 9484,
    "##ünce": 9485,
    "di̇": 9486,
    "##api": 9487,
    "yazma": 9488,
    "kültürü": 9489,
    "up": 9490,
    "düzel": 9491,
    "başsav": 9492,
    "izni": 9493,
    "verilmiştir": 9494,
    "muğla": 9495,
    "muam": 9496,
    "milyonlarca": 9497,
    "sistemini": 9498,
    "kurulum": 9499,
    "seçilen": 9500,
    "müthiş": 9501,
    "##larımızda": 9502,
    "zul": 9503,
    "inanıyorum": 9504,
    "##sp": 9505,
    "şirketler": 9506,
    "tecav": 9507,
    "##ilirken": 9508,
    "özellikler": 9509,
    "teknolojileri": 9510,
    "ölçüm": 9511,
    "açıklandı": 9512,
    "##unuzun": 9513,
    "yapılmıştır": 9514,
    "olacağız": 9515,
    "sırbistan": 9516,
    "kritik": 9517,
    "##yalı": 9518,
    "##’ü": 9519,
    "tüy": 9520,
    "şanlıurfa": 9521,
    "bitti": 9522,
    "##mon": 9523,
    "##16": 9524,
    "kısmında": 9525,
    "değişiklikler": 9526,
    "tavan": 9527,
    "fah": 9528,
    "##gk": 9529,
    "serisi": 9530,
    "kılıçdaroğlu": 9531,
    "teki": 9532,
    "##gut": 9533,
    "geçmek": 9534,
    "çikolata": 9535,
    "uf": 9536,
    "bolu": 9537,
    "##melerine": 9538,
    "sizlerin": 9539,
    "global": 9540,
    "##luğun": 9541,
    "sendika": 9542,
    "tün": 9543,
    "fre": 9544,
    "elaz": 9545,
    "halil": 9546,
    "platformu": 9547,
    "limit": 9548,
    "peynir": 9549,
    "oluşturmak": 9550,
    "ülkeleri": 9551,
    "santral": 9552,
    "koşulları": 9553,
    "fela": 9554,
    "hic": 9555,
    "sınıfı": 9556,
    "çalışıyoruz": 9557,
    "bastır": 9558,
    "istey": 9559,
    "##ã¼": 9560,
    "maksim": 9561,
    "lat": 9562,
    "işletim": 9563,
    "##evit": 9564,
    "önemlisi": 9565,
    "tc": 9566,
    "etmiyor": 9567,
    "uydur": 9568,
    "##ung": 9569,
    "böyl": 9570,
    "sergi": 9571,
    "sahipleri": 9572,
    "parkı": 9573,
    "okudu": 9574,
    "dışarıda": 9575,
    "gib": 9576,
    "düşt": 9577,
    "##illi": 9578,
    "sözlerine": 9579,
    "eşsiz": 9580,
    "kaybed": 9581,
    "düzenlendi": 9582,
    "##iminde": 9583,
    "iklim": 9584,
    "##dığımı": 9585,
    "üzeri": 9586,
    "cerrahi": 9587,
    "uzaklaştır": 9588,
    "reç": 9589,
    "ithalat": 9590,
    "koya": 9591,
    "personeli": 9592,
    "73": 9593,
    "şahit": 9594,
    "yetkililer": 9595,
    "tamamladı": 9596,
    "yapılabilir": 9597,
    "söyledim": 9598,
    "verdik": 9599,
    "##gim": 9600,
    "74": 9601,
    "felaket": 9602,
    "karın": 9603,
    "bakıyor": 9604,
    "tecavüz": 9605,
    "balıkesir": 9606,
    "aşamasında": 9607,
    "riski": 9608,
    "yürüm": 9609,
    "##yurt": 9610,
    "##ola": 9611,
    "##pp": 9612,
    "##top": 9613,
    "milletler": 9614,
    "denize": 9615,
    "sic": 9616,
    "çalışıyorum": 9617,
    "izleyen": 9618,
    "selim": 9619,
    "kazı": 9620,
    "başa": 9621,
    "müziği": 9622,
    "##üsünü": 9623,
    "yıllarında": 9624,
    "##fan": 9625,
    "göçmen": 9626,
    "girip": 9627,
    "öztürk": 9628,
    "oturum": 9629,
    "giderken": 9630,
    "##lerinize": 9631,
    "çılgın": 9632,
    "##ure": 9633,
    "alınmış": 9634,
    "led": 9635,
    "kapital": 9636,
    "gülüm": 9637,
    "yapay": 9638,
    "##gon": 9639,
    "karışık": 9640,
    "satır": 9641,
    "##tro": 9642,
    "şüpheli": 9643,
    "taahhüt": 9644,
    "##ilerinde": 9645,
    "kuruluşları": 9646,
    "##abiliyor": 9647,
    "kullanılmaktadır": 9648,
    "olurken": 9649,
    "##ilmelidir": 9650,
    "##çilerin": 9651,
    "##iret": 9652,
    "i̇sviç": 9653,
    "çözümü": 9654,
    "başlamıştır": 9655,
    "elini": 9656,
    "ihraç": 9657,
    "salih": 9658,
    "##ımdan": 9659,
    "milletin": 9660,
    "tarihte": 9661,
    "olabileceğini": 9662,
    "pant": 9663,
    "uyandır": 9664,
    "zem": 9665,
    "youtube": 9666,
    "##larımızla": 9667,
    "##ja": 9668,
    "##xy": 9669,
    "i̇sveç": 9670,
    "evli": 9671,
    "oyuncusu": 9672,
    "vuruş": 9673,
    "aralı": 9674,
    "ilanı": 9675,
    "##tiğiniz": 9676,
    "eman": 9677,
    "alp": 9678,
    "vekil": 9679,
    "afyon": 9680,
    "sitemizde": 9681,
    "##layabilir": 9682,
    "##has": 9683,
    "mesajı": 9684,
    "sef": 9685,
    "##amış": 9686,
    "hizmete": 9687,
    "farklılık": 9688,
    "##19": 9689,
    "sürüm": 9690,
    "##izmin": 9691,
    "karmaşık": 9692,
    "aleyh": 9693,
    "gebelik": 9694,
    "verdiğini": 9695,
    "çıkarak": 9696,
    "sara": 9697,
    "##’lik": 9698,
    "sektörünün": 9699,
    "domat": 9700,
    "sertifik": 9701,
    "ötürü": 9702,
    "maddeler": 9703,
    "galiba": 9704,
    "kitaplar": 9705,
    "kurulmuş": 9706,
    "öğrenim": 9707,
    "sekreteri": 9708,
    "kurşun": 9709,
    "veli": 9710,
    "örgü": 9711,
    "büro": 9712,
    "sömür": 9713,
    "##’ndan": 9714,
    "toplamda": 9715,
    "görülüyor": 9716,
    "birinde": 9717,
    "asansör": 9718,
    "##danın": 9719,
    "hatay": 9720,
    "şarap": 9721,
    "##onsor": 9722,
    "flor": 9723,
    "##leniyor": 9724,
    "##ise": 9725,
    "##übe": 9726,
    "kasab": 9727,
    "attığı": 9728,
    "istiyorsun": 9729,
    "##ğinde": 9730,
    "gala": 9731,
    "buluştur": 9732,
    "belirgin": 9733,
    "limon": 9734,
    "78": 9735,
    "ediyorlar": 9736,
    "duyduğu": 9737,
    "bilimler": 9738,
    "yeryüz": 9739,
    "gev": 9740,
    "almayı": 9741,
    "ilgilendir": 9742,
    "olmasın": 9743,
    "ilerle": 9744,
    "had": 9745,
    "oyuncular": 9746,
    "anlatır": 9747,
    "abon": 9748,
    "komutanı": 9749,
    "##utin": 9750,
    "you": 9751,
    "sag": 9752,
    "cevabı": 9753,
    "türkç": 9754,
    "hakaret": 9755,
    "mektu": 9756,
    "şap": 9757,
    "oynadığı": 9758,
    "kategorisinde": 9759,
    "##çılar": 9760,
    "##ena": 9761,
    "aynen": 9762,
    "cd": 9763,
    "abdül": 9764,
    "tabir": 9765,
    "arabistan": 9766,
    "katılma": 9767,
    "1998": 9768,
    "yazdı": 9769,
    "derv": 9770,
    "eren": 9771,
    "oyuna": 9772,
    "referandum": 9773,
    "şebek": 9774,
    "##lendirme": 9775,
    "edirne": 9776,
    "öyley": 9777,
    "fuarı": 9778,
    "yatırımcı": 9779,
    "evrensel": 9780,
    "##uta": 9781,
    "müsteş": 9782,
    "görülmektedir": 9783,
    "bekliyoruz": 9784,
    "sponsor": 9785,
    "karan": 9786,
    "getirilen": 9787,
    "duyuru": 9788,
    "atöly": 9789,
    "##çası": 9790,
    "işleme": 9791,
    "##ğımız": 9792,
    "yazın": 9793,
    "çamaşır": 9794,
    "soya": 9795,
    "itibarıyla": 9796,
    "somut": 9797,
    "muhal": 9798,
    "frag": 9799,
    "anlayışı": 9800,
    "gitmiş": 9801,
    "beyler": 9802,
    "pasta": 9803,
    "onarım": 9804,
    "alanlarında": 9805,
    "hırsız": 9806,
    "edecektir": 9807,
    "özlem": 9808,
    "bölgedeki": 9809,
    "kurumları": 9810,
    "federasyon": 9811,
    "şehirde": 9812,
    "elbise": 9813,
    "nöbet": 9814,
    "emeklilik": 9815,
    "girmiş": 9816,
    "ilgisi": 9817,
    "desen": 9818,
    "vitamin": 9819,
    "bankalar": 9820,
    "digiturk": 9821,
    "##tiğinde": 9822,
    "##cilerin": 9823,
    "##barat": 9824,
    "sunar": 9825,
    "eks": 9826,
    "sürdürülebilir": 9827,
    "ecevit": 9828,
    "merkezleri": 9829,
    "isa": 9830,
    "gelebilir": 9831,
    "beklem": 9832,
    "performansı": 9833,
    "gun": 9834,
    "##çileri": 9835,
    "körfez": 9836,
    "ukrayna": 9837,
    "boşluk": 9838,
    "##amaya": 9839,
    "şiddetli": 9840,
    "istemiş": 9841,
    "filmde": 9842,
    "böylelikle": 9843,
    "öldürül": 9844,
    "real": 9845,
    "görünüş": 9846,
    "aldığım": 9847,
    "tatmin": 9848,
    "intik": 9849,
    "sisteme": 9850,
    "veda": 9851,
    "kasa": 9852,
    "çevresinde": 9853,
    "yapıyorum": 9854,
    "bozukluk": 9855,
    "##mece": 9856,
    "bush": 9857,
    "yapacağız": 9858,
    "##gur": 9859,
    "şeyh": 9860,
    "fonu": 9861,
    "sahipliği": 9862,
    "oyunda": 9863,
    "1990": 9864,
    "atış": 9865,
    "çoğunlukla": 9866,
    "noktaya": 9867,
    "samimi": 9868,
    "cezalandır": 9869,
    "dub": 9870,
    "arslan": 9871,
    "##lanmaya": 9872,
    "nadir": 9873,
    "diğeri": 9874,
    "mekân": 9875,
    "yağlı": 9876,
    "##ica": 9877,
    "##tuğu": 9878,
    "topar": 9879,
    "muhasebe": 9880,
    "pc": 9881,
    "##düs": 9882,
    "eseri": 9883,
    "yürek": 9884,
    "mahall": 9885,
    "##’nün": 9886,
    "##bine": 9887,
    "bekleme": 9888,
    "maksimum": 9889,
    "kuruluşu": 9890,
    "yoldan": 9891,
    "yararlı": 9892,
    "reddet": 9893,
    "ilçesine": 9894,
    "##larımızdan": 9895,
    "i̇nce": 9896,
    "hızlandır": 9897,
    "belç": 9898,
    "temizliği": 9899,
    "##eyebilirsiniz": 9900,
    "##ker": 9901,
    "##40": 9902,
    "##i̇d": 9903,
    "masum": 9904,
    "ric": 9905,
    "jam": 9906,
    "seo": 9907,
    "tırman": 9908,
    "çıktığ": 9909,
    "piyan": 9910,
    "wh": 9911,
    "bizleri": 9912,
    "##ty": 9913,
    "##wer": 9914,
    "avustral": 9915,
    "##ınıyor": 9916,
    "prog": 9917,
    "akla": 9918,
    "davası": 9919,
    "kapısı": 9920,
    "##dön": 9921,
    "endeksi": 9922,
    "fırın": 9923,
    "beklet": 9924,
    "itiraf": 9925,
    "##uştum": 9926,
    "ortamı": 9927,
    "işken": 9928,
    "olanların": 9929,
    "##itan": 9930,
    "hastanın": 9931,
    "rot": 9932,
    "hedefi": 9933,
    "gereğ": 9934,
    "ağırlıklı": 9935,
    "patates": 9936,
    "##ester": 9937,
    "elem": 9938,
    "trav": 9939,
    "inşallah": 9940,
    "rey": 9941,
    "arayış": 9942,
    "otomotiv": 9943,
    "peşinde": 9944,
    "kadına": 9945,
    "##tılı": 9946,
    "maked": 9947,
    "ayrılan": 9948,
    "##liğinden": 9949,
    "satıcı": 9950,
    "uefa": 9951,
    "öğrencisi": 9952,
    "gönderilen": 9953,
    "doları": 9954,
    "anlatım": 9955,
    "türkler": 9956,
    "fig": 9957,
    "sebze": 9958,
    "şüphesiz": 9959,
    "zeytinya": 9960,
    "resm": 9961,
    "##ýk": 9962,
    "evvel": 9963,
    "isyan": 9964,
    "elazığ": 9965,
    "klinik": 9966,
    "meydanı": 9967,
    "##’ni": 9968,
    "gösterilen": 9969,
    "kesi": 9970,
    "lezzetli": 9971,
    "tutk": 9972,
    "yardımıyla": 9973,
    "artı": 9974,
    "verileri": 9975,
    "değişimi": 9976,
    "##wa": 9977,
    "trend": 9978,
    "yarışması": 9979,
    "alar": 9980,
    "tarafta": 9981,
    "görevlisi": 9982,
    "eti": 9983,
    "isimler": 9984,
    "komün": 9985,
    "##ld": 9986,
    "resmen": 9987,
    "bürok": 9988,
    "ittifak": 9989,
    "erkeklerin": 9990,
    "kaynaklanan": 9991,
    "hang": 9992,
    "başrol": 9993,
    "##müştü": 9994,
    "gelmek": 9995,
    "sex": 9996,
    "mete": 9997,
    "okumak": 9998,
    "kocaman": 9999,
    "ertesi": 10000,
    "okulda": 10001,
    "meşhur": 10002,
    "depolama": 10003,
    "logo": 10004,
    "sov": 10005,
    "##press": 10006,
    "varsay": 10007,
    "##ladık": 10008,
    "##miyoruz": 10009,
    "sektörün": 10010,
    "babasının": 10011,
    "tüt": 10012,
    "antrenman": 10013,
    "okuyan": 10014,
    "tokat": 10015,
    "hazırlanmış": 10016,
    "nci": 10017,
    "##laşması": 10018,
    "belgeler": 10019,
    "gerçekleştirildi": 10020,
    "##ug": 10021,
    "evr": 10022,
    "ruhsat": 10023,
    "yükselen": 10024,
    "alex": 10025,
    "programına": 10026,
    "oh": 10027,
    "cüz": 10028,
    "ısıt": 10029,
    "atıyor": 10030,
    "laboratuvar": 10031,
    "gelecekte": 10032,
    "yarattığı": 10033,
    "hırvat": 10034,
    "havay": 10035,
    "açmak": 10036,
    "ihtiyacımız": 10037,
    "sayfası": 10038,
    "aldığımız": 10039,
    "##iyesi": 10040,
    "i̇stik": 10041,
    "190": 10042,
    "kaynaklar": 10043,
    "##ith": 10044,
    "karaman": 10045,
    "ısın": 10046,
    "patent": 10047,
    "rejim": 10048,
    "geçerek": 10049,
    "##lanırken": 10050,
    "##ney": 10051,
    "##akar": 10052,
    "##kusuz": 10053,
    "yapmaktadır": 10054,
    "geliştirmek": 10055,
    "derviş": 10056,
    "##nda": 10057,
    "##ebiliriz": 10058,
    "sağlamaktadır": 10059,
    "##mede": 10060,
    "sıkış": 10061,
    "##gazi": 10062,
    "sayılır": 10063,
    "manzara": 10064,
    "##umuza": 10065,
    "##60": 10066,
    "yapıldığını": 10067,
    "yaptığınız": 10068,
    "ste": 10069,
    "##ebilen": 10070,
    "##kas": 10071,
    "gibidir": 10072,
    "müj": 10073,
    "intihar": 10074,
    "zer": 10075,
    "dersin": 10076,
    "başara": 10077,
    "##ısındaki": 10078,
    "##ob": 10079,
    "afganistan": 10080,
    "firmaların": 10081,
    "oluşturulan": 10082,
    "##esyon": 10083,
    "uygulanması": 10084,
    "turnuv": 10085,
    "büyüsü": 10086,
    "neticesinde": 10087,
    "##göl": 10088,
    "nolu": 10089,
    "kullanmaya": 10090,
    "şem": 10091,
    "##ish": 10092,
    "##iledi": 10093,
    "verilmektedir": 10094,
    "hormon": 10095,
    "oksi": 10096,
    "böcek": 10097,
    "##lini": 10098,
    "izleme": 10099,
    "hayatının": 10100,
    "700": 10101,
    "nitekim": 10102,
    "dergi": 10103,
    "##uyordu": 10104,
    "bilinc": 10105,
    "mahmut": 10106,
    "vekili": 10107,
    "muayene": 10108,
    "##iyeli": 10109,
    "seviyede": 10110,
    "oluşturduğu": 10111,
    "##emize": 10112,
    "ingil": 10113,
    "##omet": 10114,
    "##tas": 10115,
    "##vanı": 10116,
    "elektrikli": 10117,
    "kampany": 10118,
    "millî": 10119,
    "avusturya": 10120,
    "toplama": 10121,
    "yükle": 10122,
    "belirlendi": 10123,
    "programın": 10124,
    "maddenin": 10125,
    "çalışmaların": 10126,
    "anlamında": 10127,
    "pasap": 10128,
    "çalışırken": 10129,
    "ibaret": 10130,
    "dönen": 10131,
    "inter": 10132,
    "gittim": 10133,
    "kendinize": 10134,
    "lazer": 10135,
    "##eceksin": 10136,
    "##sından": 10137,
    "başlığı": 10138,
    "##ayn": 10139,
    "mevki": 10140,
    "atmosfer": 10141,
    "cihazı": 10142,
    "seçeneği": 10143,
    "##17": 10144,
    "basınç": 10145,
    "##hael": 10146,
    "i̇spanyol": 10147,
    "adnan": 10148,
    "rit": 10149,
    "79": 10150,
    "zorla": 10151,
    "##iver": 10152,
    "girdiği": 10153,
    "bırakıp": 10154,
    "verip": 10155,
    "##iğin": 10156,
    "bulacak": 10157,
    "##tılar": 10158,
    "##uncu": 10159,
    "önlemek": 10160,
    "##eğinde": 10161,
    "yolun": 10162,
    "##kul": 10163,
    "ndeki": 10164,
    "##ülasyon": 10165,
    "trt": 10166,
    "içeriği": 10167,
    "edenler": 10168,
    "odaklı": 10169,
    "##15": 10170,
    "nakit": 10171,
    "camii": 10172,
    "töreni": 10173,
    "sözlü": 10174,
    "##ilecektir": 10175,
    "zamanlı": 10176,
    "grubun": 10177,
    "planda": 10178,
    "boyutu": 10179,
    "sözcüsü": 10180,
    "kızım": 10181,
    "yükseldi": 10182,
    "##berg": 10183,
    "##azi": 10184,
    "##tiy": 10185,
    "cinsiyet": 10186,
    "##lamalar": 10187,
    "poli": 10188,
    "sorunsuz": 10189,
    "##yolu": 10190,
    "isimleri": 10191,
    "sergilen": 10192,
    "tehlike": 10193,
    "iktid": 10194,
    "kuralları": 10195,
    "düşer": 10196,
    "olmasından": 10197,
    "sektörde": 10198,
    "rock": 10199,
    "##brek": 10200,
    "98": 10201,
    "war": 10202,
    "i̇şletme": 10203,
    "çığ": 10204,
    "i̇çer": 10205,
    "oluşturul": 10206,
    "vat": 10207,
    "suya": 10208,
    "##vers": 10209,
    "lt": 10210,
    "##yaman": 10211,
    "çadır": 10212,
    "##tikleri": 10213,
    "mükelle": 10214,
    "coğrafya": 10215,
    "parçaları": 10216,
    "tarihten": 10217,
    "hy": 10218,
    "yahudi": 10219,
    "vazgeçilmez": 10220,
    "konse": 10221,
    "hayli": 10222,
    "geçirdi": 10223,
    "yükleme": 10224,
    "##alisyon": 10225,
    "##cik": 10226,
    "za": 10227,
    "ülkeyi": 10228,
    "88": 10229,
    "87": 10230,
    "dediler": 10231,
    "layık": 10232,
    "sorunların": 10233,
    "üskü": 10234,
    "etmey": 10235,
    "zorundadır": 10236,
    "burcu": 10237,
    "##ebileceği": 10238,
    "alay": 10239,
    "üyelerinin": 10240,
    "sınırsız": 10241,
    "bilgilerin": 10242,
    "kaydedildi": 10243,
    "##ğim": 10244,
    "müdürlük": 10245,
    "hop": 10246,
    "##dinde": 10247,
    "engin": 10248,
    "paylaşmak": 10249,
    "etkileş": 10250,
    "pik": 10251,
    "oturma": 10252,
    "toplanan": 10253,
    "neş": 10254,
    "##ıplak": 10255,
    "süz": 10256,
    "ergen": 10257,
    "mült": 10258,
    "döndür": 10259,
    "katılmak": 10260,
    "ram": 10261,
    "varlığı": 10262,
    "##uki": 10263,
    "başak": 10264,
    "epey": 10265,
    "cis": 10266,
    "kendimizi": 10267,
    "baþ": 10268,
    "##jik": 10269,
    "adaylar": 10270,
    "koalisyon": 10271,
    "aldıkları": 10272,
    "kurdu": 10273,
    "vermeden": 10274,
    "down": 10275,
    "davr": 10276,
    "aklıma": 10277,
    "içerir": 10278,
    "sindir": 10279,
    "üncü": 10280,
    "sade": 10281,
    "97": 10282,
    "##ux": 10283,
    "##abı": 10284,
    "çant": 10285,
    "gelişimi": 10286,
    "söylediği": 10287,
    "##kes": 10288,
    "anım": 10289,
    "getirildi": 10290,
    "böbrek": 10291,
    "1980": 10292,
    "yasası": 10293,
    "##gelen": 10294,
    "##poz": 10295,
    "ihmal": 10296,
    "şuan": 10297,
    "sözcük": 10298,
    "pişman": 10299,
    "##şkın": 10300,
    "##peryal": 10301,
    "dönemine": 10302,
    "##ilmek": 10303,
    "öğrencinin": 10304,
    "katal": 10305,
    "show": 10306,
    "yücel": 10307,
    "sertifika": 10308,
    "şirketlerin": 10309,
    "irade": 10310,
    "si̇": 10311,
    "##dola": 10312,
    "gri": 10313,
    "diliyorum": 10314,
    "astr": 10315,
    "tahsil": 10316,
    "esir": 10317,
    "frank": 10318,
    "etkiler": 10319,
    "##cağımız": 10320,
    "öğretmenler": 10321,
    "rica": 10322,
    "pal": 10323,
    "zah": 10324,
    "iyilik": 10325,
    "tarihe": 10326,
    "laik": 10327,
    "cap": 10328,
    "oruç": 10329,
    "örnekleri": 10330,
    "misyon": 10331,
    "siteniz": 10332,
    "fındık": 10333,
    "arazi": 10334,
    "fakir": 10335,
    "hakikat": 10336,
    "##olik": 10337,
    "piyasada": 10338,
    "hücre": 10339,
    "rüyada": 10340,
    "albümü": 10341,
    "gereksiz": 10342,
    "##eydi": 10343,
    "duyurdu": 10344,
    "hızı": 10345,
    "##laf": 10346,
    "deneyimli": 10347,
    "##oli": 10348,
    "kolaylıkla": 10349,
    "olas": 10350,
    "yerinden": 10351,
    "durak": 10352,
    "okuya": 10353,
    "birleşmiş": 10354,
    "belgeleri": 10355,
    "tarihinin": 10356,
    "##olon": 10357,
    "motos": 10358,
    "sandık": 10359,
    "baya": 10360,
    "askerlik": 10361,
    "aldığınız": 10362,
    "söylem": 10363,
    "sevdiğim": 10364,
    "ekstra": 10365,
    "satan": 10366,
    "olmam": 10367,
    "##layınız": 10368,
    "kararını": 10369,
    "yaratan": 10370,
    "turkcell": 10371,
    "atılan": 10372,
    "i̇lan": 10373,
    "##tiniz": 10374,
    "onlarca": 10375,
    "firmanın": 10376,
    "ettiğimiz": 10377,
    "ortamında": 10378,
    "şam": 10379,
    "cengiz": 10380,
    "koruy": 10381,
    "programında": 10382,
    "birbirlerine": 10383,
    "1997": 10384,
    "##eğinin": 10385,
    "##meme": 10386,
    "hissettir": 10387,
    "##ılmıştı": 10388,
    "küp": 10389,
    "yirmi": 10390,
    "kurgu": 10391,
    "##ûl": 10392,
    "üreten": 10393,
    "sende": 10394,
    "çir": 10395,
    "medyada": 10396,
    "fav": 10397,
    "okuyucu": 10398,
    "kombi": 10399,
    "##che": 10400,
    "sağladı": 10401,
    "sw": 10402,
    "##kova": 10403,
    "değerler": 10404,
    "edildiğini": 10405,
    "görmez": 10406,
    "fiyatlar": 10407,
    "mask": 10408,
    "##stri": 10409,
    "kurulması": 10410,
    "cidd": 10411,
    "i̇sviçre": 10412,
    "çözümler": 10413,
    "gene": 10414,
    "sürdürüyor": 10415,
    "##uştuk": 10416,
    "açtığı": 10417,
    "hastanede": 10418,
    "paul": 10419,
    "domates": 10420,
    "##tv": 10421,
    "hamile": 10422,
    "belgesel": 10423,
    "modül": 10424,
    "işlen": 10425,
    "##cy": 10426,
    "vakti": 10427,
    "yüklü": 10428,
    "masal": 10429,
    "aler": 10430,
    "3d": 10431,
    "kuvvetli": 10432,
    "damla": 10433,
    "tuğ": 10434,
    "ettiğiniz": 10435,
    "“türk": 10436,
    "bölümünü": 10437,
    "acel": 10438,
    "müf": 10439,
    "##alik": 10440,
    "ispat": 10441,
    "turu": 10442,
    "ju": 10443,
    "meme": 10444,
    "hayvancılık": 10445,
    "sağlama": 10446,
    "##lans": 10447,
    "##emeyecek": 10448,
    "çür": 10449,
    "şimdilik": 10450,
    "##larımın": 10451,
    "temsilcileri": 10452,
    "düşünen": 10453,
    "burda": 10454,
    "##eyici": 10455,
    "cenaze": 10456,
    "kars": 10457,
    "hareketli": 10458,
    "filmler": 10459,
    "##bbet": 10460,
    "##uyorlar": 10461,
    "kombin": 10462,
    "##pınar": 10463,
    "##duklarını": 10464,
    "##anılan": 10465,
    "içerisine": 10466,
    "hoc": 10467,
    "fatur": 10468,
    "##lova": 10469,
    "##my": 10470,
    "84": 10471,
    "turan": 10472,
    "dayana": 10473,
    "bakmak": 10474,
    "konsol": 10475,
    "oranları": 10476,
    "değilse": 10477,
    "sürüc": 10478,
    "alabil": 10479,
    "partinin": 10480,
    "solun": 10481,
    "##atın": 10482,
    "yazısı": 10483,
    "markası": 10484,
    "##inizle": 10485,
    "binası": 10486,
    "kararlar": 10487,
    "##kâr": 10488,
    "şerif": 10489,
    "etmeniz": 10490,
    "ero": 10491,
    "lor": 10492,
    "geçecek": 10493,
    "michael": 10494,
    "dedektif": 10495,
    "yerin": 10496,
    "i̇laç": 10497,
    "beraberinde": 10498,
    "##adi": 10499,
    "titiz": 10500,
    "##̇n": 10501,
    "tutun": 10502,
    "uzmanlar": 10503,
    "ty": 10504,
    "konf": 10505,
    "adamlar": 10506,
    "yapıştır": 10507,
    "tesisleri": 10508,
    "lef": 10509,
    "köşe": 10510,
    "meşru": 10511,
    "##18": 10512,
    "format": 10513,
    "##kent": 10514,
    "açılması": 10515,
    "yılların": 10516,
    "ekle": 10517,
    "yaşandı": 10518,
    "piyasası": 10519,
    "genetik": 10520,
    "şanslı": 10521,
    "##lana": 10522,
    "liraya": 10523,
    "haftanın": 10524,
    "berlin": 10525,
    "açar": 10526,
    "kdv": 10527,
    "##ýz": 10528,
    "cah": 10529,
    "kullanır": 10530,
    "mağlup": 10531,
    "beyn": 10532,
    "off": 10533,
    "üretici": 10534,
    "geçiren": 10535,
    "kullanıcıların": 10536,
    "seviş": 10537,
    "jür": 10538,
    "kurtarma": 10539,
    "analizi": 10540,
    "“bir": 10541,
    "##sm": 10542,
    "görmeye": 10543,
    "rehberi": 10544,
    "duş": 10545,
    "müraca": 10546,
    "sitede": 10547,
    "metr": 10548,
    "budur": 10549,
    "emperyal": 10550,
    "kasaba": 10551,
    "yazdır": 10552,
    "tetik": 10553,
    "durumuna": 10554,
    "şartlar": 10555,
    "rev": 10556,
    "helik": 10557,
    "güreş": 10558,
    "##dor": 10559,
    "##bit": 10560,
    "##eceğimi": 10561,
    "dern": 10562,
    "83": 10563,
    "kömür": 10564,
    "##ses": 10565,
    "dünyasında": 10566,
    "mezunu": 10567,
    "m2": 10568,
    "yapılarak": 10569,
    "tasarı": 10570,
    "##dia": 10571,
    "ayrıldı": 10572,
    "##ect": 10573,
    "wat": 10574,
    "kenti": 10575,
    "kanalı": 10576,
    "##ilde": 10577,
    "evleri": 10578,
    "boşa": 10579,
    "##zir": 10580,
    "arkadaşlık": 10581,
    "kongresi": 10582,
    "çatış": 10583,
    "##sar": 10584,
    "genelkur": 10585,
    "sözlerini": 10586,
    "geleceğini": 10587,
    "standar": 10588,
    "ekonomisi": 10589,
    "ilişkisi": 10590,
[...]
